[PAD]
[UNK]
[START]
[END]
!
#
$
%
&
'
(
)
*
+
,
-
.
/
0
1
2
3
4
5
6
7
8
9
:
;
=
>
?
@
[
\
]
^
_
`
a
b
c
d
e
f
g
h
i
j
k
l
m
n
o
p
q
r
s
t
u
v
w
x
y
z



©
ª
«
°
²
´
º
»
½
¾
à
á
â
ã
ä
ç
è
é
ê
ë
í
ï
ñ
ó
ô
õ
ö
ù
ú
ü
ā
Ġ
ō
ő
ย
ร
อ
่
ẽ
​
–
—
‘
’
“
”
…
€
™
♪
♫
Ġa
Ġt
Ġ,
er
es
Ġd
in
Ġc
Ġp
Ġs
Ġth
Ġo
en
Ġm
os
ar
is
as
or
an
Ġe
Ġn
Ġw
qu
re
Ġf
at
it
on
Ġ'
Ġthe
al
ou
Ġb
Ġde
Ġqu
om
ent
Ġh
em
Ġu
am
Ġl
ad
Ġan
Ġto
ic
Ġin
ão
Ġque
ing
Ġ''
est
Ġv
Ġi
ed
el
Ġg
Ġof
ro
Ġcom
id
Ġand
Ġum
ri
le
Ġis
ut
ra
Ġy
ec
th
Ġthat
Ġdo
so
Ġre
il
ve
and
us
``
im
Ġpar
ol
ia
ion
Ġest
Ġse
Ġno
Ġyou
to
Ġé
Ġwh
Ġas
ir
Ġit
Ġal
Ġwe
et
Ġcon
ac
un
ur
se
Ġ's
od
ly
Ġon
ig
ver
ul
Ġfor
ere
um
Ġ?
ente
Ġma
Ġpara
Ġuma
ow
Ġem
Ġr
ant
ter
Ġpro
ess
Ġ``
Ġex
Ġbe
ist
Ġnão
Ġthis
Ġda
Ġso
if
ção
Ġha
Ġme
iv
Ġst
Ġac
Ġj
st
Ġpor
Ġch
Ġos
Ġat
ld
ade
Ġap
iz
ce
Ġmu
ke
ay
ag
Ġ:
de
ab
Ġab
emos
Ġgo
Ġwas
ci
Ġen
amos
do
Ġes
Ġper
Ġare
ado
op
ith
Ġsu
Ġver
av
Ġk
Ġne
ch
pl
Ġnos
Ġ—
az
Ġwith
Ġhave
ito
gh
Ġim
Ġcan
ally
Ġpod
Ġcomo
oc
por
Ġ)
ust
Ġthey
Ġtr
Ġna
ation
ica
aus
ens
Ġout
ome
out
Ġdes
Ġmais
ha
te
Ġpe
Ġwhat
Ġnot
ear
ho
Ġwor
't
Ġn't
Ġun
ould
Ġli
ost
Ġser
Ġfr
Ġus
ada
gu
po
ões
per
tu
ação
Ġ1
esso
Ġeu
end
Ġcomp
Ġfaz
Ġabout
Ġpr
ot
Ġar
ei
Ġco
Ġmy
ill
now
Ġsh
Ġor
Ġall
for
ect
ind
ther
oun
ando
idade
og
mos
Ġtod
the
Ġdis
Ġter
ell
que
vel
Ġag
00
ause
Ġpesso
Ġmas
Ġam
Ġel
Ġpre
Ġmor
ento
Ġthere
ap
ok
ont
we
mas
Ġcont
Ġent
port
Ġsome
ge
ity
Ġres
amente
ople
Ġmuito
all
mente
Ġou
Ġhe
ud
Ġ're
ate
Ġour
Ġone
Ġdif
Ġle
Ġpeople
cia
ers
ive
Ġlike
Ġcar
Ġtem
Ġinter
ct
Ġgr
Ġisso
co
Ġbut
ados
Ġfrom
Ġer
igh
ém
inha
but
ass
bl
ese
Ġsão
Ġpl
Ġfo
Ġà
ast
Ġjust
Ġpessoas
ans
oss
Ġalg
ante
Ġlo
ma
me
Ġ2
Ġbec
mo
-se
ies
ta
ên
one
ós
ora
ink
Ġtra
Ġfazer
ça
ix
Ġsa
ida
Ġdi
Ġcl
Ġnum
Ġdos
Ġsp
Ġman
Ġele
ores
Ġestá
Ġif
bre
Ġpart
Ġreal
ido
Ġknow
du
Ġfe
Ġcois
Ġisto
ais
Ġao
Ġby
Ġob
Ġaqu
Ġthem
ber
Ġve
ico
io
ght
Ġ(
Ġmes
ound
Ġthese
ru
-l
Ġsee
ria
Ġmore
ções
Ġget
ine
Ġthink
Ġwho
der
ava
pr
Ġfac
Ġev
Ġthing
Ġvery
Ġesc
Ġnoss
ca
our
fer
Ġup
Ġhow
Ġtim
Ġever
Ġwhen
Ġhad
ight
thing
bal
Ġesp
art
ip
Ġwere
har
Ġtheir
Ġad
Ġwould
Ġsobre
Ġyour
ong
Ġquando
Ġgoing
Ġcri
anto
Ġporque
ign
undo
ib
Ġyear
Ġcome
Ġhum
wh
Ġdas
ose
ência
Ġfoi
olog
Ġbecause
ros
Ġaf
Ġpel
Ġpri
con
ack
Ġmo
ame
Ġtal
ês
Ġcor
ous
Ġanos
he
iver
Ġwant
Ġlook
ide
Ġera
Ġta
ence
Ġsem
cis
ure
ial
Ġpa
amb
Ġcol
Ġwork
ach
Ġro
wn
Ġhá
ich
Ġvez
Ġworld
Ġquer
Ġsim
pp
Ġway
-me
Ġra
ase
Ġevery
Ġreally
Ġass
Ġ've
Ġnós
Ġhas
ult
Ġdiz
ions
form
Ġri
entes
und
Ġtime
ras
Ġide
ite
blem
Ġmil
Ġother
Ġesta
eu
Ġproblem
Ġmat
Ġhuman
Ġcould
reat
Ġ'm
enas
par
Ġla
Ġactu
Ġhere
Ġfal
Ġcer
ard
Ġeste
ll
Ġinc
ior
Ġris
ambém
Ġmar
Ġthan
her
Ġmost
Ġnow
elh
Ġpo
ough
Ġimag
Ġte
Ġwill
red
Ġtodos
pt
rar
Ġmundo
Ġbo
Ġwhich
Ġrec
Ġsab
Ġpass
Ġtec
este
rig
Ġminha
orn
Ġthen
Ġdid
ild
pre
cul
Ġwhere
lo
king
Ġcons
adas
int
this
ment
Ġactually
vi
Ġnew
dade
ical
rio
Ġlit
Ġmeu
Ġestão
Ġpens
fic
Ġtambém
ain
Ġimport
aram
Ġtrans
Ġneed
nos
Ġinto
Ġtemos
Ġtw
ram
Ġtrabal
no
Ġcr
quer
Ġnov
Ġmed
Ġmesmo
Ġbu
esta
ely
Ġpol
Ġyears
Ġresp
Ġind
Ġqual
Ġess
ele
Ġmod
Ġeles
age
Ġrel
êm
inh
Ġsoci
Ġcoisas
Ġstart
Ġmuit
Ġinv
ice
segu
Ġbr
não
ina
Ġaqui
Ġá
Ġhist
ple
Ġbeen
Ġtu
Ġmake
Ġany
Ġcas
Ġgen
ace
Ġforma
Ġapl
ias
they
Ġenc
Ġhapp
Ġchan
Ġposs
ço
ugh
irst
je
Ġsay
nolog
Ġsol
Ġright
ámos
ie
ry
pois
Ġpoder
ível
Ġthings
Ġgrand
Ġexper
Ġquest
Ġapenas
Ġprecis
então
Ġca
Ġalso
ades
Ġpode
tle
Ġliv
Ġthose
Ġsent
Ġmuch
Ġinst
almente
Ġvoc
ontec
ife
Ġover
ory
Ġir
Ġpodem
Ġvida
ughter
ord
eiro
Ġsur
imento
Ġbl
ree
able
Ġtwo
gar
Ġsua
Ġprim
you
Ġconsegu
Ġdiffer
Ġcall
ents
Ġcap
Ġonde
Ġappl
pe
iam
act
Ġacontec
Ġday
Ġsomething
ific
ons
Ġfirst
Ġpodemos
Ġtêm
Ġdifer
tim
Ġeven
Ġdia
Ġins
ís
Ġfl
Ġcam
cent
ças
Ġmelh
ança
Ġol
Ġpers
way
istem
Ġbem
Ġ3
Ġtempo
Ġlaughter
Ġproc
unt
Ġbet
ount
Ġlu
icos
vol
sel
Ġback
Ġlot
let
Ġalgum
Ġagora
Ġconst
ios
Ġrisos
Ġgu
ks
Ġlittle
Ġonly
ond
ue
entar
isto
Ġfun
Ġano
-nos
Ġcham
Ġunder
ân
Ġcoisa
be
ura
Ġmud
erg
Ġnas
Ġlife
Ġgot
cion
Ġverdade
Ġmen
Ġnossa
Ġfam
Ġjo
Ġaté
Ġinform
na
ativ
Ġvol
ated
Ġlong
Ġú
Ġcomeç
Ġdizer
Ġdec
ric
Ġdepois
eira
ire
Ġtake
Ġext
Ġentão
Ġhis
ador
Ġher
amento
Ġapplause
Ġtorn
Ġint
ater
Ġestava
Ġsy
Ġpal
Ġmany
entos
Ġant
Ġche
ausos
Ġaplausos
Ġfil
Ġcent
Ġmom
Ġ20
com
gan
Ġhistó
ations
Ġseu
vos
Ġtudo
ual
antes
Ġpró
000
ody
Ġshe
Ġpou
Ġtinha
Ġkind
Ġdifferent
Ġlet
ful
hec
Ġcé
Ġsaid
Ġnat
Ġnuma
Ġvocês
Ġten
Ġsign
Ġop
ín
Ġexpl
Ġsc
Ġalgo
ular
are
Ġsó
Ġdire
Ġinf
Ġecon
Ġdel
Ġassim
ata
inda
Ġti
Ġsec
Ġdoes
ject
ance
Ġimp
rav
Ġuniver
Ġencont
ps
Ġnosso
Ġentre
át
Ġwell
ista
Ġapr
Ġdev
imos
idos
enc
Ġsom
Ġvi
that
Ġvis
Ġexperi
Ġconf
Ġprof
rough
ional
Ġfin
ish
agem
ender
Ġmaior
itu
Ġgood
Ġmelhor
veis
ph
ff
ian
icas
ting
Ġpequ
iss
ger
pres
Ġfact
Ġcomm
ning
Ġshow
Ġph
Ġplan
rios
Ġaround
Ġpat
Ġreg
Ġthrough
Ġmet
ela
ás
ture
Ġtell
Ġart
Ġmin
Ġ5
avam
Ġjá
Ġho
Ġ;
Ġ!
plo
uns
Ġuse
what
Ġ♫
rias
Ġsal
Ġnor
ower
és
Ġ19
Ġdown
ys
Ġescol
ações
ira
ne
duc
Ġbig
Ġfut
Ġsm
íci
Ġtão
Ġsub
igo
there
Ġestamos
Ġlear
idades
Ġseg
Ġgrande
Ġprov
Ġbra
hos
Ġparte
Ġainda
ick
Ġcount
ank
Ġpercent
Ġcomput
Ġ10
Ġdisse
ples
Ġfalar
pos
Ġsame
Ġdest
Ġcada
ai
á-l
itos
mer
Ġhappen
ja
xt
Ġela
Ġwhy
ves
Ġdu
Ġaut
bro
cer
Ġsch
Ġval
stem
itar
Ġdar
ição
Ġenerg
Ġfind
ors
Ġpelo
Ġtech
Ġperg
Ġdur
ital
adores
ible
Ġexem
Ġeconom
Ġpequen
íamos
eles
Ġperson
Ġfic
tura
Ġpela
Ġ'll
Ġpres
Ġrealmente
Ġmay
Ġintern
urn
Ġvezes
ário
ought
inar
idas
Ġhel
ít
ran
ece
aix
Ġaos
Ġtipo
Ġmade
press
Ġpartic
-vos
Ġbeing
ável
Ġmul
Ġdem
Ġsou
Ġbel
tal
ita
Ġloc
row
Ġestas
Ġexam
ren
Ġpen
Ġav
Ġput
Ġlev
Ġtodo
vers
rica
Ġsistem
Ġci
Ġhom
Ġown
za
Ġtoday
Ġtalk
Ġmilh
Ġpos
Ġhoje
Ġexist
Ġsystem
ser
pod
Ġbas
ten
Ġ4
ep
Ġpaís
self
Ġvo
Ġtodas
Ġconstru
til
cil
Ġbar
Ġpu
Ġmulher
Ġprodu
Ġeng
Ġgreat
Ġqualquer
Ġdist
pa
Ġglo
Ġfa
Ġchild
Ġthree
Ġequ
Ġbuild
Ġhistória
Ġcontin
aria
Ġdesign
Ġwr
Ġtrabalho
Ġpensar
Ġfiz
Ġprog
Ġexp
Ġmus
Ġstud
Ġafter
Ġcalled
Ġlá
Ġ'd
Ġvos
ating
ft
Ġchange
ics
lex
jud
Ġear
Ġmal
Ġestes
Ġsegu
Ġdeix
Ġdois
ck
Ġseus
Ġdesen
Ġproblema
ile
Ġfuncion
ates
Ġgover
ts
Ġhear
uma
Ġagain
ural
ool
Ġ-
Ġpouco
ying
Ġfeel
ities
Ġ.
Ġperce
ea
Ġ..
Ġform
Ġexemplo
Ġsempre
ty
Ġwom
Ġvai
Ġestar
Ġoutros
fore
kes
old
Ġmov
vez
esse
Ġideia
gn
stand
Ġanim
unca
Ġmé
bo
Ġsci
ivo
Ġtechnolog
Ġ%
illion
Ġschool
ize
Ġeduc
ins
Ġoutra
istas
Ġtri
Ġnossos
Ġact
Ġvamos
Ġmilhões
Ġcur
anças
ven
Ġconhec
Ġshould
Ġtoda
body
fe
Ġmon
lar
Ġmim
Ġajud
Ġcontro
Ġunderstand
Ġmodel
Ġstarted
Ġcour
gether
Ġdoing
Ġvir
Ġhigh
vamos
Ġpop
Ġàs
rigado
Ġdesco
Ġke
da
Ġlearn
Ġger
Ġend
Ġhim
Ġorgan
Ġidea
Ġtecnolog
Ġbit
Ġask
Ġsimples
rem
Ġbi
Ġrem
Ġalguns
ental
Ġstill
Ġfar
Ġpower
Ġfamil
iar
Ġhav
Ġbetter
Ġmenos
Ġmuitas
ob
Ġpróp
uro
Ġz
Ġesper
Ġcu
Ġmight
ider
dos
há
Ġinvest
well
Ġespec
go
Ġcal
Ġglobal
Ġhelp
Ġnever
ise
Ġsocial
Ġmean
ction
ón
Ġlar
ress
ifica
Ġtogether
Ġbom
Ġdef
Ġclar
Ġesse
Ġtrês
ically
lu
Ġexc
ltim
Ġpalav
Ġfound
Ġcreat
Ġ200
Ġ]
Ġsin
Ġpoint
Ġsor
Ġtenho
Ġlast
ands
quando
Ġbefore
Ġsuper
Ġsistema
ness
úmer
Ġcomun
Ġstory
Ġnunca
bri
ition
Ġmic
Ġret
Ġmem
Ġvou
enci
Ġits
res
Ġexample
iu
enh
Ġrep
Ġimportant
Ġmuitos
Ġduas
cias
Ġresult
Ġnossas
portanto
min
Ġinternet
Ġoff
Ġquestion
Ġinteress
lear
arem
Ġfacto
Ġinterest
Ġfew
ather
fici
Ġwent
Ġoutro
Ġturn
Ġperm
Ġcére
ima
quanto
Ġlado
Ġbelie
Ġhor
thank
Ġvoss
Ġessa
Ġneg
ave
Ġcre
Ġdurante
les
Ġestou
Ġoutras
Ġcourse
Ġquem
ore
Ġlim
Ġacc
Ġlig
Ġimportante
Ġfund
Ġdig
af
bi
Ġcommun
Ġthought
gua
ings
Ġped
agora
Ġ[
emente
Ġsuas
Ġpubl
Ġeach
abil
ds
Ġsl
ved
Ġamer
ever
Ġanother
anc
Ġnúmer
Ġprogram
osta
ecer
Ġcasa
Ġrece
iva
Ġusar
,000
rat
Ġcompan
Ġví
read
Ġtoo
vir
Ġgive
Ġquero
Ġnec
Ġdiferentes
Ġbrain
Ġprimeiro
Ġatrav
Ġfri
Ġable
Ġviol
alth
Ġdecid
hes
Ġtest
Ġnova
Ġantes
ilo
Ġed
Ġunivers
Ġoc
uc
isso
ists
Ġcontinu
Ġok
Ġdata
Ġkid
Ġbus
Ġalgumas
Ġnext
ways
Ġcriar
ino
als
Ġcomplet
Ġméd
qui
Ġused
ican
Ġúltim
up
tar
Ġplace
Ġgener
bem
Ġspec
Ġprimeira
ê-l
Ġsuc
tr
Ġsex
velop
Ġneste
Ġatt
Ġsé
Ġlugar
ution
Ġdesc
Ġcaus
abor
Ġcomplex
how
asse
ures
Ġ7
Ġread
Ġred
gra
ork
icamente
ited
Ġmã
Ġnecess
Ġmulheres
ath
Ġseja
Ġsto
Ġinformação
Ġindiv
Ġtentar
Ġplanet
guém
Ġfu
Ġcrianças
Ġmater
ências
Ġnem
ween
Ġsel
ized
Ġtalvez
Ġteach
ict
Ġpessoa
ars
inho
jo
Ġdesenvol
Ġens
Ġago
ús
Ġcir
Ġcame
Ġ6
iros
angu
Ġprin
Ġfriend
Ġbetween
Ġwomen
Ġún
ang
como
ença
Ġchang
ização
ters
Ġdevelop
Ġcérebro
Ġfre
Ġestud
Ġproject
iras
Ġgra
Ġprofess
ene
eram
Ġmeus
ward
Ġref
Ġpon
Ġface
ham
igos
Ġpergunt
Ġeram
porque
Ġminut
aço
anç
nect
Ġmot
Ġtechnology
rib
izar
Ġpra
Ġmomento
Ġolhar
Ġsmall
Ġtecnologia
Ġnorm
Ġprocess
Ġhome
Ġraz
íveis
ner
most
Ġinformation
Ġfel
iro
Ġset
Ġ8
Ġold
car
Ġdifí
Ġvão
ingu
ement
ários
Ġcare
Ġtrad
íl
ibil
Ġ9
Ġalguém
Ġlocal
Ġdescobri
Ġchildren
Ġalways
Ġ15
ense
Ġlive
Ġless
Ġcerca
Ġcres
ak
Ġextra
Ġparticular
Ġempres
Ġlove
Ġdados
Ġtom
onder
ária
hamos
Ġcab
Ġacab
óm
Ġatravés
Ġvolta
Ġdent
Ġrest
Ġnada
Ġcul
Ġjunt
Ġelect
Ġdias
Ġdisso
Ġelas
when
its
ary
gest
ços
ução
Ġquant
Ġmeans
Ġ30
portun
Ġid
Ġgrow
Ġacontecer
Ġmesma
fo
Ġwanted
culo
ism
Ġsk
Ġhealth
cos
Ġbeh
Ġencontrar
ious
plic
Ġpublic
rop
Ġsignifica
Ġport
uras
Ġviv
Ġcerta
Ġcond
Ġenquanto
gr
my
Ġwater
ana
temos
Ġdri
Ġaway
Ġcountry
Ġcontra
cept
Ġreas
Ġru
Ġspace
Ġalguma
Ġacred
ática
ato
Ġcompre
leg
Ġtimes
Ġdiferente
rut
Ġgost
ech
Ġ100
Ġeverything
oney
tern
Ġnature
Ġcomeçar
Ġfi
Ġali
jam
Ġcell
Ġtrabalhar
ância
Ġplay
Ġprop
Ġvia
Ġdone
Ġcost
ember
ries
Ġclaro
Ġaprend
endo
Ġforam
man
ets
Ġquase
Ġgre
Ġcolle
entemente
gin
Ġágua
Ġpolít
Ġpopul
ral
ope
Ġtransform
atch
Ġmudar
Ġnovo
Ġapp
pid
Ġhard
Ġ50
Ġconnect
Ġpot
Ġlight
Ġfuture
duz
iness
Ġfamíl
selves
Ġprecisamos
ale
Ġsecond
Ġgovern
Ġhand
essa
Ġfour
Ġbro
Ġrob
Ġpes
Ġson
Ġans
Ġconsider
Ġbast
Ġdifícil
ex
Ġmús
Ġapar
ock
Ġcoloc
tos
Ġbelieve
Ġsil
ied
Ġdentro
Ġbaix
mu
where
Ġrecon
Ġmillion
Ġnumber
ições
Ġopen
Ġfer
bec
Ġlooking
Ġconc
Ġwal
Ġevol
ories
Ġdep
Ġbook
Ġcomb
inham
Ġpi
xim
Ġespaço
Ġbase
Ġeuro
Ġliber
Ġpalavras
ício
Ġprot
Ġted
Ġmostrar
são
Ġexact
Ġfá
Ġenergia
Ġfuturo
ismo
Ġvide
Ġamaz
Ġacontece
Ġó
Ġnúmero
Ġcin
Ġsound
Ġcreate
Ġespé
Ġobrigado
inheiro
rim
ational
because
-s
Ġrealidade
áveis
Ġphys
enta
Ġuns
Ġyoun
Ġsocied
Ġsociet
nós
Ġgru
Ġmaybe
Ġbest
gs
ines
Ġfas
Ġneur
Ġwar
Ġthank
Ġprote
Ġdinheiro
Ġgiv
hip
ably
Ġpret
Ġmark
Ġeas
Ġterra
Ġespéci
Ġhou
ull
Ġestavam
Ġpartil
sol
Ġsomos
Ġfazem
Ġsido
Ġusing
Ġbecome
pect
Ġmá
togra
Ġhar
inhas
Ġcho
ror
ble
Ġsei
Ġmoney
Ġcerto
ató
Ġleft
avel
Ġsing
Ġnatural
ião
era
has
Ġindivid
Ġsitu
Ġseria
Ġdesta
Ġemb
ices
Ġnet
Ġrepres
Ġsabem
ulas
-lhe
amentos
Ġ♪
Ġsabemos
iting
Ġutil
Ġwithout
line
Ġluz
Ġcity
Ġgl
fect
bs
Ġescre
Ġresposta
Ġansw
ga
ano
Ġconv
Ġchar
Ġenor
Ġrun
Ġmer
Ġmaterial
Ġdemoc
icar
Ġwhole
ogo
Ġacr
Ġcomes
Ġworking
Ġlead
vis
ula
Ġsens
Ġlives
iram
Ġconvers
Ġrevol
Ġfora
Ġmant
Ġmoment
Ġscience
unto
Ġur
Ġessas
Ġprob
para
Ġmaneira
Ġpenso
Ġgrou
Ġfood
Ġmedic
Ġsaber
óg
Ġobser
Ġliter
Ġhal
Ġfeito
Ġmusic
Ġdisc
vem
ms
ál
Ġclass
Ġfive
Ġmeio
Ġtalking
elas
Ġquestão
Ġpaíses
Ġtrying
Ġthinking
indo
Ġair
ivos
Ġescola
atro
Ġquanto
Ġtook
aces
aut
Ġpho
Ġbastante
Ġenergy
éc
Ġinte
Ġsaú
Ġaltura
Ġsaúde
Ġmãe
Ġmass
ail
Ġdó
Ġpolit
Ġbre
Ġ201
úbl
Ġdays
Ġvideo
Ġacross
Ġrelig
Ġroom
itas
Ġstru
Ġponto
Ġaum
Ġexperiência
Ġoper
Ġkids
Ġinteresting
Ġmúsica
Ġhead
Ġstu
Ġtold
ier
Ġfamily
Ġcient
Ġplant
Ġwee
ites
Ġpossível
cum
foi
Ġsuch
Ġcidade
Ġside
Ġadd
Ġcontrol
Ġrespons
Ġdesde
Ġcél
adr
Ġgetting
Ġorig
Ġacho
Ġtinham
ffect
Ġtry
va
Ġtar
mar
semos
Ġdólar
by
Ġespecial
ím
Ġmind
Ġstre
Ġbody
Ġvíde
Ġfol
rer
Ġmonth
Ġps
Ġhappened
Ġcase
Ġpic
ativa
Ġrad
Ġx
anha
Ġmakes
Ġcou
Ġtiv
Ġseem
Ġwhe
Ġfoc
cover
bon
Ġresol
ala
Ġallow
tas
Ġpúbl
allen
avor
Ġyoung
Ġmodo
Ġimagin
led
Ġmult
Ġdom
a-se
Ġge
Ġdeste
Ġmaking
rigada
Ġvossa
Ġrazão
vo
Ġenough
Ġstand
ét
Ġoh
Ġdoll
-o
Ġpretty
Ġnesta
Ġaprender
Ġfra
-p
avelmente
Ġamerican
ê-lo
anho
Ġlevel
Ġreason
estas
das
armos
Ġeffect
icação
osp
Ġadv
Ġsort
reas
Ġdecis
Ġnenh
Ġnuc
Ġbusiness
Ġemp
Ġpequeno
Ġways
ences
Ġsaw
Ġdesenvolv
Ġhomem
imentos
Ġhavia
Ġalmost
Ġsignific
ar-se
Ġchina
Ġsi
Ġfant
Ġparece
Ġmatter
ately
Ġlem
ative
Ġacer
Ġbuilding
Ġearth
Ġobject
Ġprinci
én
Ġviver
Ġcorre
solut
ments
Ġfriends
Ġelse
Ġself
here
ues
Ġbri
-d
Ġinsp
Ġcorpo
Ġindust
less
Ġnormal
Ġmaioria
ization
Ġcapac
Ġquatro
Ġty
Ġimagem
Ġabsolut
inas
fort
lus
Ġpergun
Ġserá
Ġcountries
Ġdeles
Ġfundam
Ġsense
these
Ġvosso
Ġwonder
Ġvar
aqui
Ġgir
Ġec
Ġproblemas
Ġmyself
Ġsat
Ġpequena
Ġey
Ġident
Ġaquilo
Ġchallen
Ġpast
edi
Ġaud
Ġoften
Ġpag
Ġspea
Ġsimple
Ġscient
Ġmoder
iais
acter
Ġlater
Ġhosp
dut
low
Ġdiv
ently
-c
cial
Ġdeb
Ġinside
Ġmove
Ġdólares
Ġficar
Ġlangu
Ġfamília
Ġlist
Ġpriv
Ġestado
Ġanswer
Ġgente
ov
ót
Ġpassado
Ġhalf
Ġindividual
Ġasked
Ġquite
of
jet
urs
íst
Ġbab
Ġfís
Ġbegin
Ġnuclear
Ġconsum
Ġ25
Ġtrat
Ġnível
earch
Ġconsci
Ġconstruir
etim
ready
imens
Ġdan
Ġbad
Ġcaso
Ġfim
Ġtent
jeto
Ġfez
Ġthous
Ġimagine
Ġcarbon
Ġfos
Ġbring
Ġambi
Ġblo
hem
Ġexperience
she
Ġhour
Ġstr
br
Ġ40
ily
Ġanal
Ġfavor
Ġdet
Ġtre
Ġexperim
Ġinteressante
Ġhappens
ilt
ciais
Ġaí
Ġnetw
Ġbat
Ġhumanos
Ġguer
Ġgrandes
Ġpap
Ġciência
Ġequip
Ġsegur
Ġclim
Ġpud
omos
Ġfig
idd
Ġpersonal
osa
Ġbeaut
Ġcult
Ġprobably
Ġremember
ially
Ġsw
Ġexiste
Ġperceber
Ġdise
Ġresearch
Ġsust
Ġwatch
ou-se
bers
ces
Ġleg
mes
Ġintel
Ġcheg
cin
ken
Ġstop
Ġlongo
Ġparec
Ġsala
des
Ġtele
Ġwrong
Ġwords
Ġincred
Ġkeep
Ġajudar
estes
Ġmust
Ġgoes
Ġcapaz
osto
Ġcomputer
árias
Ġhomens
Ġlabor
Ġste
Ġescr
á-lo
Ġmicro
Ġfazemos
undred
Ġciv
Ġworks
Ġhope
Ġúnica
ást
Ġamazing
Ġsup
Ġhumano
Ġacerca
Ġgirl
Ġaconteceu
inal
Ġblack
Ġpont
Ġliving
quele
new
Ġcoming
Ġsimplesmente
-f
Ġpermit
ecei
Ġdefin
imag
Ġcust
Ġimm
Ġamigos
Ġvídeo
Ġnews
Ġdollars
Ġlaw
Ġdocum
ane
Ġage
Ġwa
Ġalready
elho
Ġ18
Ġmiss
ention
Ġhaving
Ġpet
ving
Ġeducation
Ġhu
Ġhistórias
Ġanything
Ġexistem
Ġvac
Ġlooked
Ġsure
Ġbillion
Ġdigital
ones
Ġtop
Ġoce
viron
rás
Ġmother
cas
Ġcommunity
Ġamb
Ġqueremos
Ġhundred
Ġchegar
dia
Ġdesaf
elo
vou
Ġfunciona
day
ually
Ġpati
acion
Ġtend
ris
Ġnight
oso
Ġenviron
Ġprocesso
Ġstates
Ġerr
Ġsociedade
cio
Ġbiolog
Ġonline
Ġprodut
Ġconte
Ġmach
Ġpicture
Ġyet
Ġqueria
Ġquais
ury
Ġpress
ously
Ġfrente
els
Ġwhile
Ġposso
obrigado
ream
Ġboth
Ġboa
fico
Ġapro
Ġpossible
Ġrá
Ġvemos
Ġseen
Ġcinco
Ġarte
Ġpais
Ġsociety
enças
Ġextraord
Ġ12
Ġexactly
vert
onte
Ġlearned
Ġpai
ogle
Ġmund
Ġcop
Ġfácil
rível
Ġarch
-a
todos
Ġsomeone
just
Ġpodia
Ġinde
Ġobvi
Ġmatem
ware
Ġuntil
Ġcra
Ġstuff
Ġvisual
ird
Ġningu
Ġninguém
Ġnothing
Ġquis
Ġespécie
Ġvidas
Ġobserv
Ġatrás
ident
ola
Ġexplor
Ġdess
Ġpreoc
Ġbecame
quis
Ġcomport
Ġexpress
Ġgrav
Ġsegund
Ġfui
rel
get
Ġprom
ined
Ġclear
ológ
iões
Ġpay
etimes
Ġtrue
Ġcontar
Ġhistory
mit
eter
Ġmelhores
gem
Ġmental
Ġbal
Ġquestions
Ġestran
ilar
Ġkill
Ġflu
Ġmudança
Ġcompletamente
Ġprime
Ġdemocra
Ġje
Ġgoogle
Ġhab
Ġesses
why
Ġnovas
Ġmeses
ead
Ġflor
Ġsingle
Ġpartir
Ġtot
Ġdra
Ġfosse
Ġcaminho
Ġeurope
Ġner
Ġcompet
Ġcarro
Ġdisp
enção
Ġcuid
Ġrepresent
ér
Ġrede
Ġgrupo
Ġdirect
Ġunited
Ġonce
unch
cess
Ġtool
Ġpelos
podemos
Ġdeter
Ġportanto
Ġhon
Ġstudents
Ġjob
Ġign
viv
oca
icion
Ġcélulas
Ġknew
Ġoportun
Ġmess
Ġsha
ency
Ġtrust
ton
Ġcomunidade
Ġtip
eld
ats
Ġformas
Ġgroup
Ġtanto
Ġhospital
Ġinvestig
dio
Ġcompletely
Ġconseguimos
Ġing
Ġlanguage
Ġtam
Ġcells
Ġmilhar
itut
Ġguerra
Ġstories
irem
Ġmedo
Ġfinal
ecto
Ġanimal
Ġpreciso
Ġdiscover
Ġimagens
Ġestrut
Ġcivil
Ġconfi
Ġmedia
Ġtir
fia
Ġsays
Ġokay
Ġvocê
Ġbehav
iful
Ġthough
Ġbene
tra
ort
Ġcausa
Ġbuilt
Ġprovavelmente
Ġmonths
Ġchanged
Ġenvironment
Ġpoderia
-lhes
Ġpadr
Ġheard
Ġafrica
air
ped
Ġorder
tudo
á-la
Ġwithin
Ġproduct
Ġchamado
Ġalter
Ġwhether
muito
Ġaquele
Ġconj
ides
agens
Ġempre
book
Ġcapital
Ġhoras
Ġnar
Ġmuita
Ġmilhares
frica
Ġconseguir
Ġshare
Ġdr
pens
Ġactiv
Ġáfrica
Ġprepar
Ġlearning
Ġconseguem
zer
Ġpassar
ribu
Ġvoz
Ġcomputador
podem
óp
Ġmerc
Ġothers
Ġsentido
Ġparticip
am-se
ption
Ġstate
Ġfollow
Ġsegundo
Ġdepress
Ġfree
Ġcresc
Ġpossibil
depois
Ġfrequ
Ġfix
Ġpergunta
ages
Ġlarge
ush
Ġuniverso
Ġuniverse
Ġpris
Ġ17
Ġsolar
Ġvalor
Ġef
Ġtreat
Ġestados
Ġdestas
Ġfilhos
enso
inte
ator
Ġminhas
Ġcomecei
Ġplaces
iores
fr
Ġconstruí
inc
Ġstay
Ġtur
Ġcertain
Ġwall
Ġempresas
Ġil
sab
atamente
Ġiss
ól
Ġsix
Ġnoite
Ġ60
Ġdecided
istic
Ġdiffic
Ġbehavior
Ġprojeto
ínhamos
Ġsit
Ġmarket
Ġentire
Ġprincip
Ġlut
Ġdifficult
Ġenorme
essem
uss
Ġimpro
Ġlooks
Ġterror
Ġquerem
Ġsufici
Ġtrabalh
Ġcompar
Ġsequ
Ġreality
acional
cy
mais
Ġcod
ende
Ġproduz
side
quei
culos
Ġnome
Ġcompany
Ġwalk
ret
Ġgovernment
Ġpalest
Ġmag
Ġferram
Ġtermos
Ġouvir
Ġador
iado
Ġmi
Ġlivro
tual
Ġeconomia
omes
Ġmens
Ġeverybody
Ġbaixo
vens
Ġagainst
Ġgan
atic
ór
Ġcomida
Ġencontr
Ġweb
Ġbeautiful
Ġevent
Ġmáqu
Ġtarde
Ġpalavra
Ġhol
Ġmodelo
Ġshar
ãos
den
Ġyork
brar
Ġeasy
Ġsuccess
bol
assim
Ġsaying
Ġgenes
Ġgar
Ġvie
Ġarm
Ġdeixar
Ġ000
iga
Ġitself
Ġmão
iddle
Ġideias
Ġce
Ġcidades
Ġdestes
Ġgets
cle
Ġcontr
Ġtornar
Ġfear
Ġdoença
Ġill
Ġesqu
Ġhold
Ġsav
ávamos
itor
Ġnatureza
Ġcarros
acto
Ġtaking
Ġolhos
Ġeveryone
Ġpapel
Ġfizemos
Ġlab
Ġcouple
nov
eah
Ġmill
Ġox
Ġmiddle
Ġsho
Ġorganiz
ró
ney
em-me
Ġdese
atos
Ġenvi
atório
Ġeua
Ġbasically
Ġtru
Ġview
Ġaper
Ġjour
sei
Ġpred
ícios
Ġourselves
Ġvoltar
íp
Ġul
Ġtakes
Ġsince
Ġbot
Ġcancer
oria
ique
ases
Ġconce
Ġline
Ġinvent
Ġwo
Ġproblems
ility
Ġexplain
Ġenvol
Ġasso
âm
Ġspeak
Ġtamanho
Ġdele
Ġlí
cture
idente
Ġpain
ried
gum
Ġname
ug
Ġdna
Ġfotogra
anas
Ġimpl
every
Ġigu
Ġcars
Ġintelig
Ġstudy
urg
ático
Ġfail
Ġcompreender
ential
tei
Ġdeal
Ġinício
Ġimpress
ection
Ġturns
Ġplaneta
Ġroad
some
Ġword
Ġambiente
Ġsof
Ġautom
Ġang
Ġajuda
Ġpróx
Ġrapid
Ġcabe
Ġelectric
Ġsegurança
Ġmeas
apar
Ġspecies
Ġedif
Ġkinds
Ġlots
Ġfantást
Ġrelations
tamente
feito
Ġwind
Ġearly
Ġemerg
Ġban
Ġinflu
Ġeg
Ġpaint
á-los
ians
Ġaqueles
Ġseguir
Ġurb
tes
Ġconfl
Ġwoman
Ġaber
Ġextrem
Ġdream
Ġdisease
ribut
ibly
Ġsepar
Ġtiver
Ġspe
Ġlou
Ġdela
Ġsociais
Ġdro
Ġsoft
Ġaquela
Ġ90
Ġsimp
itive
Ġalém
Ġcomplic
Ġapres
pass
adora
Ġcris
Ġopportun
Ġcolor
Ġinov
Ġpowerful
Ġprocur
estamos
then
bros
Ġyes
Ġcut
forma
Ġpróprio
Ġfocus
ling
Ġtipos
Ġepid
Ġpesquis
quê
ted
Ġaudi
esc
Ġrecord
Ġouv
Ġcoll
Ġet
Ġnegó
Ġdesenvolvimento
Ġelem
Ġfull
abilidade
Ġweek
Ġlisten
também
Ġsurpr
ged
Ġhuge
Ġfelt
Ġráp
Ġment
etic
Ġalun
Ġlhe
Ġthemselves
Ġcreated
Ġland
Ġgoverno
Ġpiece
Ġexpect
anda
vent
Ġcima
Ġhumana
Ġdever
Ġclos
Ġdru
Ġcy
Ġlon
Ġcompanies
xo
Ġcriança
Ġcities
Ġspend
Ġfeliz
Ġengine
Ġpolítica
tom
Ġfront
Ġrelação
Ġ80
hou
Ġvê
Ġafric
Ġtínhamos
ama
vie
Ġcanc
Ġ199
Ġcru
rada
Ġfamiliar
Ġhours
Ġteve
ativo
Ġadn
tem
Ġín
ished
Ġthousands
Ġmole
Ġfigure
Ġdor
ançar
Ġeducação
Ġcalcul
ining
Ġlow
Ġtotal
ron
stru
Ġfazê-lo
úst
Ġgreen
quela
Ġbol
Ġace
ford
Ġmap
Ġheart
Ġnear
Ġsurpre
Ġach
Ġideas
Ġpaper
Ġpract
Ġmob
Ġimage
Ġlín
bra
avil
Ġpattern
Ġpresent
Ġrele
Ġconjunto
Ġprópria
Ġones
Ġworked
ze
Ġutiliz
Ġchamada
Ġaccess
Ġeconóm
Ġmaj
Ġhappening
talvez
Ġlevar
Ġjovens
Ġepidem
Ġintro
Ġcle
Ġtive
Ġinnov
Ġquick
Ġmos
Ġtant
Ġvisão
Ġséculo
Ġ13
Ġdeus
Ġcomeçou
Ġsize
Ġsupport
Ġgave
Ġcade
inst
Ġestu
Ġfem
ah
encial
nas
Ġredes
Ġleave
Ġfundamental
Ġhaver
Ġquar
Ġsometimes
Ġinstead
ualmente
Ġinclu
Ġmaravil
Ġdestru
ping
Ġ16
Ġlost
ogra
Ġsabe
Ġinstitut
Ġdescobrir
Ġempresa
Ġinteract
Ġoffic
Ġhot
rie
Ġagric
entas
Ġcentury
Ġkey
Ġpoor
Ġviolência
culas
Ġrelationship
Ġarqu
haps
Ġdizem
ques
Ġmundial
rei
Ġrobot
come
Ġcultura
pro
Ġdelas
sim
Ġanimais
Ġu.
Ġdéc
Ġhouse
Ġperd
zy
Ġpark
Ġguy
Ġconfiança
Ġcomer
Ġalong
Ġcit
Ġdepend
precis
Ġsubst
pan
Ġlid
Ġpac
Ġdisto
Ġdá
ód
Ġdou
Ġseis
Ġmilitar
ony
Ġneeds
teza
Ġinstitu
land
Ġtransport
Ġacredit
pped
Ġignor
Ġsan
Ġvalue
Ġimaginar
obrigada
Ġcomeça
voc
Ġsabia
Ġpopulação
ming
Ġhy
room
Ġmedida
o-nos
Ġúltimos
Ġsegunda
Ġphysical
pend
Ġamount
aixo
já
Ġdon
Ġhip
rael
Ġconhecimento
Ġeyes
Ġlocais
Ġeight
ike
Ġlonge
Ġbeginning
ume
gen
Ġpost
oma
Ġdemon
Ġdeep
ced
Ġsucesso
Ġlonger
Ġremo
Ġamerica
Ġunidos
Ġmatemática
Ġtin
Ġresolver
Ġapo
Ġdiferença
Ġcentral
esar
pet
erem
Ġblood
Ġescrever
Ġvers
Ġappro
Ġopt
cu
Ġirm
Ġprofessores
Ġminutos
Ġoutside
ability
Ġbehind
Ġdark
duzir
Ġcapacidade
Ġalc
Ġdifference
Ġmont
Ġran
eio
Ġneeded
uais
Ġsed
Ġstreet
Ġdisser
Ġcommunic
Ġmaiores
ither
Ġgod
Ġ11
Ġtravel
eta
ges
Ġinsect
erv
rea
Ġrespon
Ġjan
Ġcollect
ppos
Ġpas
atura
Ġfather
Ġár
Ġmajor
reg
Ġfeed
Ġdemonst
imin
jar
Ġsomebody
Ġserem
Ġpequenos
éria
cri
Ġdeath
Ġdoct
Ġleast
Ġbrit
Ġeconomic
Ġnetwork
Ġ70
Ġnan
Ġmachine
Ġmeet
ativas
ung
elhos
Ġsimilar
Ġparents
quero
Ġisrael
Ġvem
Ġchallenge
gos
Ġfab
Ġpartilhar
Ġreconhec
inhos
Ġcabeça
Ġprofessor
Ġpensei
Ġviolence
Ġbloc
Ġsituação
50
ively
hn
Ġvoice
Ġbomb
ledge
Ġperspect
ource
Ġfacebook
Ġteam
-lo
Ġlat
Ġvossos
Ġinvis
Ġnumbers
Ġsentir
iste
Ġúnico
Ġfield
Ġmiú
Ġoportunidade
Ġidade
Ġrepar
Ġbir
ximo
Ġindúst
otos
Ġsít
rum
Ġpelas
çam
ateg
Ġalim
Ġcampo
Ġeconomy
bor
Ġfascin
Ġcentenas
Ġrather
inary
Ġcoleg
Ġinspir
rus
gue
rom
Ġhappy
Ġperto
Ġthird
Ġcomigo
assem
Ġaw
Ġserv
ou-me
itivo
Ġfib
Ġimposs
Ġassoci
Ġhora
Ġpreocup
Ġtens
Ġbreak
Ġimpact
Ġseguinte
Ġvel
Ġnúmeros
Ġatenção
Ġtechnologies
Ġknown
more
Ġobjet
Ġamor
Ġincrível
lish
Ġtext
ych
face
Ġsaud
Ġservi
Ġsug
ark
Ġlhes
-b
Ġground
Ġinic
Ġyeah
Ġnenhum
acy
ícias
Ġsever
Ġsend
tain
Ġwest
Ġentanto
só
Ġshort
Ġtax
ificar
Ġsum
Ġcrit
Ġforça
Ġtecnologias
Ġcancro
Ġsimply
Ġcat
Ġarran
-y
Ġprofund
Ġconta
Ġpopulation
Ġbenef
Ġfinally
Ġescala
Ġgal
Ġyourself
Ġdeve
cios
Ġprefer
Ġpúblico
Ġlivros
estão
ames
Ġdemas
ermos
Ġsair
arch
-no
Ġsemana
Ġsystems
Ġcolocar
Ġresist
Ġating
Ġneurón
Ġrealized
Ġori
Ġárea
Ġbon
ustr
embro
Ġsaí
Ġgas
Ġperfect
Ġpontos
Ġgps
Ġpolic
Ġestiver
Ġstat
Ġbill
ostas
Ġdivers
Ġobter
Ġtemper
ogn
usto
-h
Ġsun
Ġculture
ero
Ġrisk
Ġmathem
Ġbil
Ġattack
Ġirão
Ġmanh
Ġdin
Ġesquer
Ġgiven
Ġminutes
ecem
Ġevid
Ġstrong
Ġmol
Ġvista
Ġcomum
Ġentrar
Ġrou
Ġprecisam
Ġfall
Ġsud
Ġbaby
Ġseeing
Ġcrescimento
ulo
Ġjuntos
itions
Ġtaken
Ġcurr
Ġfoss
Ġbegan
Ġbran
wards
echan
Ġrapar
Ġlinha
Ġtools
Ġstep
ising
ught
Ġimportantes
Ġpros
Ġexperiment
ature
Ġestudantes
Ġphone
Ġrapidamente
Ġmain
Ġspecial
Ġwrite
Ġcaix
Ġrap
terior
Ġanimals
écn
Ġtro
Ġrisco
Ġlingu
ração
Ġchin
ny
Ġaffect
Ġemot
Ġdoenças
Ġpô
Ġvari
Ġsangu
Ġrecogn
Ġequipa
Ġestávamos
Ġtel
Ġdeser
Ġferramentas
Ġsistemas
Ġmechan
Ġchem
Ġmanter
Ġborn
ised
Ġeat
Ġslow
Ġapós
hood
Ġcomple
Ġalone
Ġincredible
Ġpick
-year
ging
Ġmec
Ġpá
Ġsolução
igas
Ġclose
Ġimages
Ġumas
quem
rab
Ġfilm
érica
Ġnovos
Ġterce
Ġbeb
Ġrespond
Ġbooks
idge
Ġcento
Ġbox
uring
Ġturned
Ġtécn
Ġtotalmente
Ġterm
Ġurban
Ġjorn
rir
Ġpsych
ended
Ġmodern
Ġteachers
aves
Ġaperce
Ġúltima
rial
Ġsérie
Ġduring
ants
Ġcontinuar
Ġpolitical
Ġsemanas
Ġler
iramente
ordo
Ġknowledge
Ġhit
pes
Ġcontrolo
sequ
Ġestim
Ġassist
fully
Ġabsolutely
igr
Ġwrit
fa
omas
ivas
Ġfat
Ġnational
Ġquestões
Ġhumans
Ġcerteza
Ġsul
Ġadap
use
Ġjohn
Ġestrutura
Ġlik
Ġmovimento
Ġalunos
Ġsuf
Ġdisseram
Ġado
Ġsus
Ġcomportamento
Ġperform
uth
jecto
ivamente
ash
ientes
wo
Ġhands
Ġexperiências
ances
Ġpassa
Ġperhaps
Ġtried
Ġestudo
Ġ14
Ġsmart
Ġfast
Ġúltimo
Ġcommon
Ġstress
Ġprecisa
Ġmeasure
ium
Ġpensamos
Ġflo
Ġanyone
Ġquím
imagin
Ġdescober
Ġsob
Ġresultado
Ġopportunity
Ġfeeling
orre
Ġvolt
Ġmesmos
verage
Ġnorte
Ġmis
Ġstran
ícia
Ġmente
Ġusando
Ġcarbono
Ġsurpreend
Ġcomeçámos
Ġmorte
Ġpath
Ġine
Ġsoftware
Ġáreas
Ġlimit
Ġamigo
Ġuniversidade
Ġocean
Ġmosqu
Ġwhite
Ġfight
Ġbased
adamente
Ġirá
Ġdessa
Ġnenhuma
Ġsqu
Ġquantidade
Ġfilho
Ġfizeram
Ġhundreds
Ġdessas
Ġreach
orque
ao
Ġeuropa
Ġabord
Ġresultados
Ġincl
Ġple
Ġolh
la
Ġcomputadores
Ġgeneral
Ġcenter
Ġsemelh
Ġscre
ídu
Ġtype
view
var
Ġmagn
Ġperguntas
Ġacesso
Ġrevolution
Ġgrad
Ġneuro
Ġcirurg
Ġstar
Ġpadrões
Ġcientí
Ġlif
ired
Ġdevido
Ġoil
Ġimpacto
Ġneigh
Ġblind
Ġdeg
Ġrequ
Ġconsequ
Ġmicros
Ġfinalmente
itional
0s
Ġindustry
Ġvárias
gas
Ġdead
Ġprocura
Ġmáquina
Ġparar
-old
vocês
Ġvic
Ġnisso
Ġmex
Ġsouth
Ġseven
Ġviagem
prim
esper
elhas
Ġtum
Ġdrive
Ġcamp
Ġnon
eliz
Ġju
Ġgrowth
Ġcool
Ġmoral
precisamos
Ġapproach
Ġfundo
Ġeither
Ġdireito
Ġdispos
Ġsym
Ġmist
Ġfarm
hoje
ering
Ġlíder
Ġpesquisa
Ġsuficiente
Ġmac
Ġdesafio
word
Ġpasso
ética
iti
Ġspread
ete
aged
Ġbasicamente
óvel
Ġfinan
Ġpartes
Ġguard
Ġrate
Ġdemasiado
sos
Ġtruth
Ġcurios
Ġdireitos
Ġcrescer
Ġpróprios
Ġdez
em-se
Ġweeks
Ġnotícias
ission
Ġdimens
Ġprotect
iamente
Ġpatients
Ġextraordin
oud
Ġiorque
áticas
Ġmand
Ġdie
Ġhig
Ġvul
Ġterms
Ġinvol
Ġwin
Ġiria
Ġrealize
Ġmolecul
Ġprinc
Ġdam
Ġultra
Ġmostrar-vos
Ġcentro
Ġscale
Ġrelacion
Ġrefer
Ġgene
Ġreconstru
Ġjap
Ġsejam
Ġbura
Ġestrel
Ġcapazes
Ġforest
Ġ198
cr
Ġarchit
Ġtas
Ġresto
Ġapart
Ġseems
Ġmensagem
Ġcitiz
ape
Ġensino
Ġpared
Ġverm
Ġindústria
ivers
Ġlaboratório
Ġpegar
Ġfísica
ump
ler
Ġquão
Ġsong
Ġestiv
éssemos
Ġwonderful
Ġsounds
plos
Ġneurons
Ġamérica
Ġhabit
Ġstructure
Ġexatamente
Ġopin
Ġmaravilhos
ecture
tail
Ġobrigada
Ġtelling
rote
osos
Ġcomeçaram
urity
entially
Ġzero
Ġnisto
Ġrecu
ources
imo
qual
icul
Ġescolas
Ġindia
Ġtiny
-passe
Ġfuncionar
Ġsolution
Ġdeveloped
está
Ġperguntar
Ġrain
Ġfly
col
right
Ġclimate
Ġdesapar
Ġconstant
Ġenglish
ago
itó
Ġneurónios
Ġchanges
Ġíndia
leo
Ġball
bres
Ġbril
Ġsudden
Ġblock
Ġexer
Ġpossam
Ġ24
Ġexpand
Ġspo
Ġpobre
ursos
Ġcâ
Ġlived
Ġconsegue
Ġenfr
Ġboas
Ġorg
fica
Ġord
Ġmillions
Ġindivídu
Ġbang
idad
Ġcientistas
Ġaltern
Ġjovem
Ġaula
Ġscientists
Ġstarting
Ġgostaria
Ġconsigo
Ġparts
Ġguys
Ġvisto
Ġlidar
penso
Ġabs
Ġlay
bel
enced
vas
ui
Ġgrupos
Ġinterested
ír
Ġcode
imaginem
Ġblue
tenho
ona
Ġmut
Ġsequer
Ġaprendiz
Ġphotogra
Ġgone
Ġárv
Ġunderstanding
Ġtelem
Ġdescre
Ġquickly
Ġpopular
Ġintegr
Ġgast
Ġdispon
Ġandar
Ġingl
Ġpequenas
cada
Ġseres
Ġleaders
Ġporquê
Ġdraw
irm
Ġbrought
Ġpassword
itch
Ġtrata
Ġlevant
Ġchip
Ġrua
Ġaumentar
ows
Ġstra
icações
Ġtelef
gg
Ġalgor
Ġacabar
Ġbuy
lect
alg
not
Ġrecently
Ġsave
Ġveloc
deix
-m
Ġia
Ġbor
Ġmessage
Ġsuggest
aços
rado
aram-se
á-las
Ġdevelopment
Ġpredict
Ġlugares
Ġindepend
Ġhouve
xto
Ġpessoal
ract
Ġagr
Ġreact
can
Ġpensam
Ġelev
Ġtv
Ġarquit
Ġnut
eler
Ġsangue
Ġensinar
Ġuniversity
Ġesperança
Ġclean
Ġfoto
zo
Ġvisit
imensional
Ġespécies
phone
Ġwhatever
Ġmoving
Ġextre
Ġigual
Ġsolve
Ġdanger
Ġmotiv
Ġcombin
Ġaprendizagem
Ġexplicar
ologia
Ġcolegas
Ġboc
Ġcontrário
Ġden
amer
Ġfacil
Ġdesenvolver
Ġsuic
Ġhiggs
Ġpróximo
Ġsuperf
Ġdevemos
Ġschools
Ġrobô
Ġteoria
Ġavail
Ġteria
Ġdetermin
Ġcód
Ġrevel
first
Ġlinguagem
Ġarea
Ġpobres
primeiro
Ġeverywhere
omen
Ġapan
Ġincreas
Ġcogn
une
ift
Ġamong
Ġshows
ploy
Ġactual
Ġjourney
Ġoito
Ġmelhorar
Ġability
Ġton
back
Ġautor
Ġtheory
Ġcele
hado
itter
Ġlíngua
ring
bar
Ġaproxim
Ġafrican
Ġbiggest
Ġfotos
él
Ġsustain
Ġaverage
cient
Ġmãos
Ġdiagn
ench
Ġmercado
Ġnessa
Ġmetade
many
Ġdevem
Ġgirls
Ġfotografia
Ġcâmar
Ġtechn
Ġself-
Ġgrá
Ġpermite
cur
Ġsoz
Ġresponse
Ġmuse
seg
Ġalto
Ġcidad
Ġareas
Ġentender
Ġmudou
Ġliterally
Ġjud
Ġincredibly
Ġisl
Ġeye
Ġrul
Ġlog
izing
ivity
Ġavailable
ouch
Ġpasse
Ġsustent
Ġprincipal
Ġmédico
Ġhonest
elizmente
Ġpan
Ġfur
Ġcusto
Ġensin
ators
ety
Ġcontinue
istan
Ġasking
Ġcard
Ġlos
Ġphil
inhar
Ġembora
Ġwebs
Ġsecurity
Ġacredito
Ġ300
Ġpois
pers
oms
vão
ulho
Ġsociedades
Ġsocieties
Ġwrote
Ġargum
Ġalta
Ġleva
Ġsubject
Ġvot
mo-nos
may
Ġfundament
Ġsite
Ġaprendi
Ġadm
Ġcomprar
Ġworth
Ġkil
Ġdescon
Ġprincíp
Ġmathemat
ativos
Ġemail
Ġadult
Ġgrowing
Ġsexo
Ġcrazy
Ġpassion
orks
Ġapesar
Ġsand
Ġcuidados
itude
Ġreport
Ġsenh
Ġpur
Ġnam
Ġissue
Ġchanging
Ġgiving
Ġinstru
itais
Ġpull
áticos
ibility
Ġpetró
Ġpetróleo
Ġled
Ġtrou
icle
Ġsitting
Ġrecol
atas
Ġativ
med
Ġbur
iot
Ġofer
ners
Ġboy
Ġbottom
quilo
Ġserious
Ġrevolução
fin
Ġira
Ġfazia
Ġfamílias
Ġasp
Ġcreating
Ġtivesse
Ġready
-year-old
Ġsecret
Ġdemocracy
Ġefic
Ġinterior
Ġinstrum
Ġstarts
Ġcomputers
Ġmolé
Ġgeral
Ġchoice
Ġadapt
Ġsete
ein
Ġtenha
ramos
Ġtrás
iação
Ġdiscovered
vemos
Ġliberdade
Ġfreed
au
Ġsituation
Ġcoun
Ġprimeiros
aco
cons
çar
Ġtorna
Ġdimin
Ġmiles
Ġmotor
maybe
ég
Ġpalestra
yond
ister
head
Ġconfer
rif
Ġspeed
Ġaz
Ġrole
val
Ġ500
Ġ197
rast
ik
lig
Ġrunning
Ġsuperfíci
Ġlanç
Ġgroups
Ġpior
Ġtwitter
Ġengen
Ġdemocracia
Ġbons
Ġescolher
people
Ġmeth
etros
Ġterem
Ġresponder
Ġauto
Ġjog
Ġrelações
Ġimedi
Ġperder
atu
iça
eiras
Ġaudience
ology
ostos
yn
Ġdigo
Ġced
Ġefeito
via
Ġestab
Ġsea
Ġdesper
Ġindustrial
izado
velmente
Ġproper
Ġfaço
Ġafast
Ġnovamente
Ġmemó
Ġacad
Ġchama-se
Ġprodutos
Ġuso
Ġcaixa
Ġpedir
Ġtirar
Ġsurviv
Ġaccept
Ġrecursos
Ġtor
Ġbuildings
Ġrend
Ġdesse
Ġdetect
Ġnaquele
Ġmeaning
estou
imagine
Ġfair
hing
Ġastr
Ġcoração
Ġreasons
Ġvend
Ġmalária
Ġlikely
Ġsonho
Ġentend
Ġconsciência
ids
jamos
Ġdoentes
Ġwish
Ġbed
Ġ21
Ġpróxima
sem
Ġdeliver
Ġlic
isse
Ġusam
Ġchamamos
Ġcalif
ensão
Ġapresent
ival
Ġpint
Ġflow
Ġspent
Ġwriting
Ġsearch
Ġu.s
Ġfire
Ġouvi
omet
cula
Ġrespe
Ġmiúdos
ído
Ġstage
Ġgosto
Ġhumanidade
Ġespant
Ġperman
Ġphotograph
Ġdevice
Ġentus
Ġfantástico
Ġnice
adoras
idão
Ġoriginal
bios
Ġespecially
Ġther
Ġmicrosc
Ġligação
Ġdeveloping
Ġaction
Ġhigher
Ġshowed
Ġcoz
Ġdomin
Ġrepl
Ġcultural
ema
Ġcand
zz
Ġinstituições
Ġcorrer
Ġregras
Ġsoon
ensive
Ġrapaz
uf
Ġsurg
Ġguess
Ġmédicos
iano
Ġod
Ġconcer
ned
Ġpodiam
veu
Ġrelativ
icks
ensa
Ġattention
Ġbigger
Ġder
Ġforward
istão
Ġpossamos
duced
Ġdescobrimos
ives
Ġsexual
Ġsuffer
ake
Ġmédio
Ġspecific
Ġrazões
Ġprograma
Ġtomar
Ġfica
with
Ġrock
Ġcorr
Ġinstal
Ġfinding
Ġampl
Ġseveral
Ġjornal
Ġpig
Ġespal
vida
Ġcaracter
Ġnetworks
Ġlond
Ġhipót
Ġproduce
Ġmateriais
Ġesquerda
put
até
Ġamea
Ġthreat
Ġcolabor
Ġconversa
Ġcorrect
Ġpôr
Ġreturn
Ġesfor
minist
Ġsuperfície
Ġsurface
Ġadol
inos
Ġcompanh
Ġaval
Ġinclud
Ġsítio
ellig
cção
Ġoptim
Ġestat
Ġscientific
Ġlei
Ġmath
Ġpush
Ġbeyond
time
riam
Ġrepente
Ġproto
hor
Ġiran
Ġcolleag
Ġposição
iana
Ġfurther
Ġvill
Ġetc
Ġconcent
clar
Ġtraz
Ġdescri
-amer
rivelmente
Ġrema
astic
Ġpensem
Ġvejo
Ġprodução
Ġreun
Ġtable
Ġann
Ġloved
Ġvítim
Ġisol
Ġmédia
alguns
Ġeast
Ġcompon
Ġperigos
ub
iant
Ġvelocidade
Ġcause
Ġbecomes
Ġprocurar
bia
orm
Ġsold
-te
Ġpatient
Ġnesse
Ġtivemos
Ġcompass
Ġinstitutions
Ġata
Ġconseguia
Ġconnected
Ġrecom
Ġatmos
Ġnacional
Ġedifícios
ério
Ġgives
Ġvictim
encialmente
Ġlíderes
Ġsky
poder
Ġamar
Ġartific
Ġmuseum
Ġvirtual
alo
Ġneighbor
Ġtransfer
Ġnine
Ġfabric
Ġrepet
Ġmapa
Ġmanhã
Ġpropor
Ġsource
Ġerrado
Ġcook
Ġrecuper
i-me
Ġsobrev
ased
Ġtranspar
Ġalt
oph
Ġrules
odo
itmo
Ġcara
Ġmad
uros
Ġpatterns
today
Ġnout
Ġtenham
ológica
radas
Ġphotos
Ġkilled
Ġchinese
Ġcompreend
Ġentusias
Ġknows
Ġmovement
Ġpoderá
nel
aw
Ġforce
Ġsinal
Ġfreedom
Ġmodelos
ards
Ġparecer
Ġbacter
Ġremark
Ġexemplos
eces
Ġwait
Ġespecialmente
Ġfinance
Ġprogress
óveis
Ġforn
Ġrich
rease
Ġadolesc
sec
Ġpróprias
Ġaccount
fi
Ġidos
Ġép
Ġpul
tery
Ġchoose
Ġcódigo
Ġmetros
ística
Ġachie
sabem
pposed
Ġmau
Ġassust
Ġglass
Ġdetail
Ġresta
Ġextraordinary
Ġsam
lusão
Ġcarre
urante
Ġmedical
Ġvós
Ġpossa
Ġveem
pode
-american
Ġequal
Ġnegócio
eceu
Ġmortal
Ġemoc
onom
Ġber
porte
Ġteacher
Ġrid
Ġsafe
Ġgeração
Ġorigin
Ġefici
Ġpoll
Ġmeant
okay
work
Ġ1,
Ġdiag
Ġcrisis
Ġconcept
Ġdistribu
itation
Ġficam
ery
Ġentrop
Ġ3d
Ġrespostas
Ġshared
eno
osas
Ġnervos
Ġeventually
unately
Ġwife
like
Ġcross
Ġinnovation
Ġhall
Ġexcel
Ġclassroom
izada
ríveis
Ġfamilies
Ġsaf
feitos
issão
Ġmicrob
Ġchec
Ġassunto
Ġcoop
Ġtare
Ġpeace
Ġdesejo
hi
Ġking
idores
Ġengan
cor
Ġobviously
Ġteste
Ġputting
Ġpartí
Ġcrise
Ġolder
Ġpin
instein
Ġqualidade
izados
Ġshowing
after
Ġcá
Ġcomunicação
Ġassum
Ġbic
Ġpict
Ġpictures
Ġreput
acred
rou
over
Ġplano
Ġdeu
Ġmedicine
Ġbrin
Ġrápido
Ġtraditional
Ġlink
Ġvulner
Ġpresente
faz
Ġprojecto
Ġmassa
Ġfloresta
Ġresources
tinha
Ġken
Ġcomunidades
ua
Ġinglês
Ġhistor
ecimento
Ġthousand
Ġcore
Ġcostum
ainda
Ġveio
Ġdied
oming
ley
Ġaust
Ġforte
Ġmou
hada
Ġquad
estava
Ġsurge
Ġcasos
Ġtraining
Ġcombust
Ġtransl
Ġprior
Ġbrother
Ġcollege
Ġpagar
Ġlembrar
ify
tur
sou
Ġkm
Ġporta
Ġmostra
timo
Ġchris
Ġperí
Ġcrimin
Ġavanç
pção
Ġvivem
Ġeffici
Ġlargest
Ġtouch
Ġquil
essas
Ġjul
Ġperceb
itamente
Ġcasas
Ġexpans
Ġsell
visão
Ġexpos
Ġpotential
Ġgrew
Ġdoor
Ġnecessário
Ġtruly
ires
Ġspir
Ġdivert
Ġperspective
uções
Ġstudent
Ġaplic
Ġfaster
Ġvas
Ġnotic
Ġmorrer
énio
Ġdiscuss
Ġbirth
Ġcen
Ġprojet
tico
cional
Ġdram
Ġcant
Ġfit
Ġestudar
Ġacreditar
Ġgig
Ġresults
Ġfiquei
Ġpil
ocar
Ġcommunities
ónia
Ġescolha
Ġfilme
Ġespera
Ġcustos
Ġatra
Ġacordo
Ġaquelas
Ġfoot
Ġcrít
Ġcampa
Ġorganização
Ġevolution
Ġmorning
Ġchance
rg
Ġmaterials
Ġrar
rible
Ġanymore
Ġexciting
Ġsubstitu
Ġcommit
Ġfeita
Ġapplic
Ġincrivelmente
Ġund
Ġ2008
ares
Ġtopo
Ġparis
Ġnu
Ġelectricity
hh
Ġmine
Ġgeneration
Ġcâmara
Ġtransmit
Ġdesigners
Ġabaixo
Ġrespect
Ġtiss
ander
Ġdú
Ġalimentar
Ġscreen
Ġrecentemente
Ġsuperior
Ġcomprom
nal
cl
Ġvirtu
Ġinstant
Ġtornou-se
Ġnotice
Ġwritten
Ġcreative
Ġafford
Ġreceber
Ġbás
Ġbank
Ġfalta
Ġmoved
Ġfran
Ġdistância
Ġenter
Ġvírus
Ġdecision
Ġfavorite
Ġagricult
itivos
-de
Ġnav
Ġtowards
Ġsinto
Ġlate
Ġven
bit
Ġlivre
íg
ots
ellow
Ġedifício
ypt
Ġlarger
Ġarchitecture
Ġtotally
aps
Ġvaria
Ġpalavras-passe
Ġnegócios
iente
Ġinovação
Ġabsolutamente
ills
Ġverdadeira
Ġanalis
Ġaspect
nia
lem
Ġrom
Ġevidence
Ġsle
Ġmam
Ġredu
Ġindeed
Ġroll
Ġmosquitos
Ġestudos
Ġduma
fal
Ġbrand
Ġépoca
Ġganhar
Ġdesigned
Ġpun
Ġrelationships
Ġestranho
ograph
Ġcateg
onde
Ġcorpor
che
Ġtalked
Ġinfect
Ġsuddenly
Ġestrada
Ġstrugg
Ġmodels
Ġsint
érias
Ġteaching
Ġful
Ġmedicina
Ġindividuals
Ġpolitics
claro
Ġunique
Ġcélula
Ġfemin
.000
pensem
Ġfish
Ġlevou
Ġinvestigação
Ġexamples
Ġship
Ġmarca
pear
Ġcarne
eless
mon
Ġpreço
Ġcelebr
Ġfísico
Ġintellig
Ġeffective
irar
Ġficou
Ġadicion
Ġrever
Ġgame
verty
Ġobs
icidade
Ġrights
Ġmatéria
Ġindic
Ġparticularly
Ġrein
Ġrot
ultura
Ġgold
Ġvários
Ġbrilh
Ġabelhas
Ġsalvar
Ġimmedi
Ġgovernos
Ġprison
Ġtan
Ġbiologia
Ġdrug
Ġcic
Ġamost
Ġposition
Ġpodíamos
Ġsyn
Ġcos
bble
think
Ġlower
Ġbrains
odies
Ġconversation
Ġbeg
Ġdesses
Ġliteralmente
Ġfáb
Ġbasic
Ġtaught
Ġcooper
Ġissues
Ġbair
Ġsomewhere
idro
Ġtrem
Ġaband
Ġrepro
Ġevolu
Ġabo
será
Ġdocument
Ġpoverty
Ġmudanças
Ġcadeia
Ġfomos
Ġmalaria
Ġmaneiras
Ġultrapass
Ġtumor
Ġdoctor
Ġarab
Ġmarketing
Ġeconómico
acho
Ġpróximos
Ġserviços
Ġrand
Ġtun
Ġdebate
iedade
guei
Ġfrequentemente
Ġtransformar
Ġfuel
Ġobjetivo
Ġcompaix
Ġprovide
Ġsensação
Ġcere
mous
Ġphysics
Ġserão
amo
Ġprovid
Ġnobody
tex
Ġsuccessful
áss
Ġworse
Ġcontext
Ġmethod
Ġpolicy
eness
Ġuniversal
Ġpobreza
nunca
Ġvêem
Ġcold
gth
Ġsons
Ġnormalmente
usion
Ġsupposed
Ġcampaign
Ġshape
Ġlaunch
Ġbiology
Ġfen
Ġevolução
ísticas
Ġskin
utions
Ġtrazer
ffic
Ġimaginem
iza
Ġemploy
Ġmesmas
Ġaparecer
Ġjogo
Ġpolíticos
Ġdisse-me
Ġice
Ġcérebros
tood
Ġtecido
Ġren
Ġmobile
Ġcompaixão
Ġcover
Ġfrank
rit
Ġadminist
Ġcart
Ġnarr
Ġpeg
Ġallowed
Ġnaquela
Ġvirus
Ġvivo
Ġsurger
wor
Ġcomeçam
ioso
Ġeficaz
Ġdestro
Ġraparigas
two
Ġsect
Ġdetal
Ġconceito
umb
Ġartificial
Ġwants
Ġconstrução
aging
ceis
hei
Ġinterpre
Ġproduzir
Ġexcept
Ġtrade
oth
istry
Ġpsic
Ġpaix
Ġultim
Ġmel
Ġep
áx
Ġdrugs
erstood
Ġcompassion
Ġhur
Ġabordagem
Ġprosper
Ġgráfico
Ġconserv
Ġvêm
Ġexplos
ificação
Ġerro
guas
Ġbranco
even
Ġdécada
Ġobviamente
Ġcomplicated
Ġrelev
cont
son
Ġoxy
Ġ2010
Ġaument
Ġabrir
Ġparal
rees
Ġdivid
ingly
Ġespero
Ġonto
Ġtraffic
Ġproduto
ode
Ġpir
Ġdoente
Ġquarto
Ġsobreviver
ived
Ġcollabor
Ġdiminu
Ġoffice
att
Ġregul
Ġexce
Ġflex
urso
Ġvision
Ġanál
ises
Ġperi
Ġsobreviv
Ġexactamente
Ġenviar
Ġfeitos
Ġfeet
ficos
Ġenvel
Ġenvelhec
Ġhumanity
win
Ġeinstein
entei
rã
-os
Ġwear
Ġpotencial
aticamente
Ġinteiro
Ġoffer
Ġpreocu
umin
ricas
Ġpolice
Ġesperar
Ġpoderiam
ilidade
Ġruas
Ġmover
utor
Ġaceit
Ġparede
Ġmilitary
Ġapply
Ġsar
Ġcandid
ef
Ġvimos
Ġequival
sia
Ġfunction
Ġcertainly
Ġusamos
Ġteen
existem
Ġpieces
Ġenvolv
Ġcontinua
Ġrev
Ġpage
Ġabandon
Ġinfin
Ġconscious
Ġcopy
Ġperíodo
ê-la
ómetros
Ġconduz
Ġgraph
Ġcosts
Ġambos
neste
Ġcoal
Ġmuseu
Ġdesem
Ġmês
light
Ġecrã
Ġsentimento
Ġperf
Ġimporta
aving
Ġpadrão
Ġorganization
têm
Ġvivemos
Ġreceb
Ġale
Ġsuger
bage
Ġencontrei
deixem-me
viam
estar
Ġaddress
ânica
Ġbecoming
ches
Ġincrease
Ġmemor
Ġsimul
Ġ2000
Ġolharem
Ġfuncionam
Ġpaz
Ġwebsite
Ġhair
Ġ150
sa
Ġexpensive
Ġpalco
Ġusa
Ġcamera
Ġveí
Ġconvenc
Ġtratamento
Ġpoderíamos
Ġespecí
tica
Ġlista
Ġpré
Ġbud
Ġchr
Ġpresidente
Ġmanip
enquanto
Ġlines
Ġequil
Ġacord
Ġremind
Ġazul
bu
Ġvejam
oid
Ġwalking
Ġnorth
Ġtit
Ġallows
Ġplac
Ġemiss
dades
Ġreading
Ġfing
Ġanybody
Ġpovo
Ġdiseases
Ġpermitir
Ġstri
Ġcitizens
Ġdaughter
Ġcheck
Ġhi
éis
Ġ194
Ġtab
Ġsurprising
riz
ili
Ġoceano
apor
Ġdirection
Ġquerer
Ġquadr
Ġconduzir
Ġprint
Ġfossem
Ġverde
Ġperfe
oh
Ġscrat
Ġlutar
Ġ1.
those
Ġsinais
Ġsemelhante
Ġradical
Ġminute
ern
Ġfotograf
Ġquality
Ġcomplexo
Ġrange
Ġgro
Ġcred
Ġphoto
Ġgovernments
Ġdevia
Ġperspet
Ġárvores
Ġbact
Ġdecades
Ġstanding
Ġdireita
ei-me
ground
Ġcases
Ġafe
Ġconnection
Ġpeix
Ġtaxa
Ġprazo
Ġrandom
gon
urais
Ġnecessidade
vey
ctions
Ġ–
Ġvacc
Ġestive
Ġabove
Ġdivis
Ġlistening
todo
Ġpolíticas
Ġdouble
know
atory
eth
vio
Ġalive
Ġleis
Ġpresident
Ġdeixem-me
Ġdeveria
Ġhero
Ġpractice
Ġexperiences
uz
estic
Ġcéu
Ġgeor
Ġdign
Ġlogo
Ġsorts
Ġemprego
Ġfonte
Ġverdadeiramente
deu
Ġmilhão
Ġcoment
Ġadoro
durante
ified
Ġvast
Ġegypt
iração
Ġcharacter
Ġparque
Ġpassou
Ġinternational
-t
ince
Ġstraight
Ġparecem
Ġregular
Ġdance
Ġdocumentos
cionar
Ġlibert
deia
Ġscar
rimento
Ġgain
Ġvant
Ġperiod
Ġdevices
Ġecos
Ġsorte
Ġbaixa
Ġscratch
Ġbroad
Ġreflect
Ġfronte
Ġdificul
oura
Ġterceiro
bert
Ġdaqui
Ġenjo
Ġpública
ássemos
Ġconstitu
Ġveh
Ġdegrees
ceu
Ġsmaller
Ġpág
Ġpágina
Ġphen
Ġgenetic
ânico
Ġjobs
Ġpeso
Ġartista
Ġartist
Ġextremamente
Ġvolume
Ġwashing
Ġvossas
Ġchegou
Ġded
Ġbodies
Ġanti
Ġrecognize
Ġmista
Ġchu
Ġband
Ġfis
queles
Ġacadem
Ġjun
Ġpudesse
Ġunderstood
Ġinvolved
Ġremarkable
Ġpoints
Ġinfra
Ġgala
tube
Ġimprove
Ġanterior
Ġobservar
Ġhole
heiros
Ġsight
elet
Ġbreat
Ġcondições
Ġpartículas
Ġeth
Ġpercebi
Ġcontribu
Ġhelped
Ġnovel
Ġforem
Ġescut
fortunately
Ġdireção
Ġverão
pping
Ġpolícia
Ġdriving
Ġvillage
vam
Ġdécadas
Ġmonitor
Ġimpression
Ġshown
Ġtelemóvel
Ġspeech
Ġdepart
enda
Ġfrag
Ġregião
Ġkept
Ġafgh
Ġsac
formações
Ġsilk
ending
Ġrio
Ġpena
Ġmembros
Ġcidadãos
Ġuseful
Ġmatters
Ġharv
Ġcircu
Ġatac
Ġcast
Ġfeedback
Ġtells
Ġmemória
Ġindivíduos
rupt
Ġsecund
resp
Ġcosta
brem
Ġmulti
Ġgalax
Ġyoutube
Ġnanop
Ġearl
Ġtornar-se
Ġplease
Ġacima
Ġadmit
Ġhimself
Ġaleg
any
Ġtreatment
cham
Ġpack
isf
Ġcarvão
Ġbiliões
Ġnasc
Ġmoun
Ġpoucos
Ġfrase
ínio
ímos
Ġconvos
Ġconvosco
Ġcolleagues
Ġhus
Ġpele
Ġtrees
Ġdepressa
Ġmagic
Ġcontent
ibilidade
got
gers
Ġgás
Ġfinancial
Ġpropried
ba
Ġradi
ila
erson
num
Ġincluding
ager
rew
Ġpé
Ġneighborhood
Ġpés
Ġconclu
Ġatravess
Ġelé
Ġvest
Ġtempos
Ġsendo
Ġinfer
Ġ2009
Ġconven
grad
Ġdisap
Ġdecisão
Ġradio
Ġagar
enn
Ġproducts
Ġsurgery
iados
Ġworry
Ġbread
Ġfort
Ġboard
wise
Ġessentially
Ġdad
Ġchallenges
Ġlaws
Ġlose
Ġestrat
todas
Ġhoriz
Ġpensamento
Ġdescrib
Ġtocar
Ġade
Ġdangerous
Ġvib
Ġxx
Ġmuda
Ġnove
rest
Ġimediatamente
Ġquê
Ġancient
arily
Ġafect
Ġphenomen
Ġutilizar
Ġhost
Ġcritical
ê-los
Ġaplicação
Ġelectron
Ġsad
Ġsquare
Ġcurso
Ġcircul
Ġregion
Ġefeitos
Ġquiserem
Ġjournal
Ġconect
Ġimpossível
Ġbeat
Ġsecre
Ġcloser
hard
Ġtema
Ġfollowing
Ġcrispr
Ġchão
Ġalem
Ġ2011
Ġhop
heim
Ġcultiv
atividade
éner
Ġbras
Ġcontact
Ġcontexto
Ġprivate
Ġmanuf
Ġdecidi
Ġcontain
Ġprice
Ġhighly
Ġrab
Ġcontribut
ético
Ġirmã
usão
cha
Ġtiveram
Ġviz
Ġmultip
Ġcarry
Ġusually
Ġaprendemos
Ġdiar
-to
acidade
Ġperguntei
ést
mm
Ġerros
vit
band
Ġexplic
Ġpron
Ġpoet
Ġluck
Ġweight
Ġcedo
Ġpis
Ġ75
Ġaulas
Ġmáquinas
Ġconsegui
Ġimped
Ġhotel
Ġincom
Ġmeios
Ġalar
Ġdecide
Ġdebaixo
Ġafghan
Ġmit
Ġseda
Ġnestas
Ġwatching
Ġseguro
Ġspirit
úr
Ġimpossible
Ġdecisões
lor
Ġkn
Ġtempor
estrut
Ġanat
Ġdescoberta
Ġpolar
Ġverdadeiro
Ġreligião
Ġchave
Ġmr
Ġdemocrat
orar
Ġpasswords
Ġhaiti
Ġtarget
amin
Ġreduz
algum
Ġgéner
inct
Ġcort
Ġvítimas
sh
uls
Ġdistribut
itution
Ġencontramos
pen
Ġalcançar
Ġclearly
nosco
ália
Ġproteger
Ġprática
Ġnearly
Ġinevit
-las
itário
Ġmercados
Ġhipótese
Ġspeaking
Ġpaixão
Ġgri
gost
Ġentusiasm
Ġtown
Ġcomplete
Ġchamar
-ter
Ġcria
Ġreconhecer
Ġbitco
Ġgradu
Ġloss
Ġvig
Ġworkers
Ġfilha
Ġcheap
Ġproduction
Ġbebé
Ġbio
-los
Ġregress
Ġgenome
Ġsimpl
Ġafet
Ġgaláx
ray
vive
parece
fera
Ġsurr
Ġburaco
Ġgreatest
Ġstick
Ġarmas
Ġvictims
Ġweap
utu
Ġagrad
etro
Ġinsects
Ġcontrolar
consegu
aling
top
who
ils
elha
Ġrural
Ġconnosco
Ġpropós
Ġvont
Ġvontade
Ġbater
Ġexcited
Ġcampanha
lim
Ġavi
Ġstars
Ġimpr
itiva
Ġdesp
Ġsoluções
Ġstreets
som
Ġespaços
Ġdiria
used
Ġelementos
Ġfenóm
men
Ġcalor
Ġtua
Ġinformações
Ġangeles
esis
take
Ġmention
Ġfunção
Ġincent
Ġimportância
Ġpus
Ġdança
Ġtask
Ġgostar
icional
Ġdoctors
Ġaceler
Ġconvinc
Ġdaquele
fiz
Ġcertamente
Ġruss
Ġreligion
Ġób
Ġgostam
Ġsério
Ġfelizes
Ġcirurgia
Ġtex
Ġillness
Ġmechanical
esses
Ġconhecer
Ġpoup
Ġdispar
Ġnestes
Ġcriação
itório
Ġchoc
Ġoriente
-ma
Ġcirc
Ġslight
Ġfemale
Ġvalores
Ġlinhas
Ġrecent
Ġcál
Ġben
Ġapont
Ġaustral
Ġestrelas
ju
Ġvent
Ġprost
Ġsermos
Ġconteú
Ġpaid
Ġpedaço
Ġterrible
Ġeletr
mesmo
Ġinteresse
Ġforget
Ġwashington
Ġrepe
remos
amo-nos
Ġprojects
Ġgoal
ar-me
Ġregist
Ġusado
Ġapple
izadas
Ġmemory
Ġfactos
-in
Ġqueriam
Ġfloor
Ġfash
Ġclin
Ġinvisible
Ġgenoma
Ġ400
Ġolho
Ġtransporte
Ġabund
Ġ0
osh
Ġmesa
Ġpão
ystem
phere
ónica
.a
Ġnegro
Ġdrop
Ġmassive
Ġnatur
Ġlua
cina
Ġpeça
Ġritmo
Ġwaiting
Ġinici
Ġsurpreendente
Ġlegal
Ġprisão
Ġentrepr
istics
Ġdevast
Ġsolo
Ġexplorar
Ġmarc
Ġperspetiva
Ġsites
Ġserve
Ġbringing
Ġassem
Ġlad
Ġdescul
ganistão
vid
Ġdog
gens
Ġwealth
Ġdeixa
Ġoportunidades
Ġscan
Ġfrancis
ografia
Ġfashion
cks
Ġemotional
Ġcomplexidade
Ġterren
Ġinteligente
Ġjoy
Ġveter
unci
Ġsymbol
Ġparticularmente
Ġespír
Ġig
Ġestiverem
Ġquilómetros
Ġsubs
Ġsignificado
Ġmoléculas
Ġmolecules
Ġprofission
Ġ23
Ġchain
Ġdir
Ġphysic
ball
Ġbees
aixon
-up
Ġestivesse
Ġpoderoso
Ġluta
Ġriscos
Ġcav
ests
ópio
Ġtido
bling
Ġcommunicate
ardo
Ġclick
Ġlands
Ġacham
Ġórg
Ġcontrat
Ġsomehow
Ġrecover
Ġoppos
Ġfill
eder
Ġdizia
Ġafeganistão
Ġlider
ifer
Ġshad
orders
Ġviu
fas
Ġpossibilidade
Ġsleep
legal
Ġtrabalhadores
Ġengage
Ġjapan
Ġimplement
Ġobt
Ġcloud
onia
Ġreino
ecção
Ġexpon
Ġservices
Ġbrings
teis
Ġpainting
zheim
zheimer
Ġestás
Ġfala
Ġric
Ġvalu
Ġgénero
peto
Ġbul
Ġtough
somos
Ġcro
Ġinteligência
Ġepidemic
Ġpropósito
Ġdiss
Ġraise
Ġapaixon
Ġrestaur
ulos
Ġstopped
Ġinteressantes
Ġahead
Ġchega
Ġgather
Ġsap
Ġligar
Ġconditions
Ġvive
Ġles
Ġquímica
Ġ27
Ġbeings
Ġapoio
Ġperformance
Ġletter
Ġsenhor
porquê
Ġchemical
jas
vejam
Ġgreater
elesc
Ġintens
ecut
Ġsilên
Ġcoca
ored
Ġtap
Ġobvious
Ġlack
Ġaumento
-la
lam
Ġobjects
acionais
Ġmensagens
Ġsurvive
Ġsegundos
Ġdecade
Ġvan
Ġpensa
organ
Ġestratég
Ġstruct
Ġprofessional
Ġjustiça
Ġmomentos
Ġintu
Ġprém
Ġdesempen
Ġdeterm
Ġcanad
cito
Ġpares
Ġmecan
Ġimmediately
ída
Ġemo
Ġfamos
Ġsolutions
Ġfalamos
Ġfine
Ġ22
Ġmarkets
Ġviram
Ġservice
dom
ological
Ġsenti
fortable
Ġcarta
Ġatl
Ġshift
Ġdiferenças
Ġabra
Ġacom
Ġfailure
Ġacabou
Ġconhecemos
Ġeasier
Ġníveis
Ġmembers
Ġtelesc
Ġproced
Ġesteja
sabemos
Ġphilos
Ġincluindo
Ġtrack
-dimensional
Ġfech
Ġelectr
Ġtantas
Ġdisappear
Ġinfrast
Ġinfrastru
Ġabsor
Ġalzheimer
Ġcertas
Ġdipl
Ġbiom
Ġsaving
tro
Ġtermin
Ġlínguas
anced
ossistem
Ġpressure
-ch
Ġusada
Ġrise
ometers
Ġterminar
untos
Ġframe
Ġexperiments
Ġrespeito
Ġstrateg
eias
Ġinsectos
-e
Ġneander
além
Ġresponsabilidade
Ġmatch
Ġdizer-vos
Ġheld
Ġmanus
cobri
Ġfogo
Ġtornou
Ġhumanas
Ġgarant
sent
Ġdiagnost
Ġavoid
Ġshop
Ġempower
Ġbacteria
Ġbatal
Ġagir
ee
aim
Ġgab
Ġjard
look
dução
Ġvindo
Ġnoticed
Ġcomeço
Ġinsight
Ġsharing
Ġaltru
Ġterceira
another
Ġanderson
Ġseemed
Ġchamo
entação
Ġexterior
Ġlie
astre
Ġextremely
wk
Ġestabel
Ġcrime
Ġcert
iter
Ġideal
Ġearlier
Ġecosystem
Ġaspeto
Ġcole
aper
Ġreform
Ġdesafios
Ġocor
Ġdepressão
icon
Ġenormes
Ġfelicidade
Ġestruturas
Ġprofissionais
Ġforms
Ġanswers
Ġsustainable
Ġexér
Ġprevi
itam
Ġmerg
Ġinfant
Ġdriver
haria
ya
felizmente
Ġsetembro
Ġcommunication
Ġexpressão
Ġah
Ġsir
Ġtrip
avia
Ġevitar
ogos
Ġconseguiu
Ġpoderão
iosos
Ġnotas
iction
Ġprincípio
berg
Ġimplic
Ġhealthy
f-
Ġseries
Ġforças
Ġafghanistan
Ġcomeçamos
Ġrapariga
aa
ination
igma
Ġminds
Ġobst
Ġmix
-na
Ġbridge
Ġwilling
Ġacres
dei
Ġdemonstr
Ġembra
itores
Ġsilêncio
Ġexig
Ġinvestment
Ġdar-vos
Ġdito
Ġcem
rific
Ġtradicion
rative
Ġplat
Ġversão
Ġaldeia
Ġdesej
Ġinjust
Ġzona
Ġfalam
Ġobes
thern
Ġstrange
enciar
cipl
Ġmedicamentos
Ġtyp
óst
Ġprotection
Ġalgorith
Ġcriatividade
zil
Ġsurround
Ġidosos
Ġbarato
Ġfarmers
Ġenfrent
Ġgrave
hop
Ġmoon
Ġplaying
Ġtissue
Ġorigem
emun
âncias
Ġcong
aking
acontec
Ġfore
Ġmale
acular
Ġspect
ismos
Ġpoucas
Ġreview
alled
Ġcondition
Ġgeorge
Ġimun
Ġútil
cest
Ġaim
bg
Ġperda
actu
Ġcontar-vos
ront
Ġtrend
Ġencontro
Ġgelo
Ġglac
Ġdão
Ġeffects
Ġbelief
rico
resso
-term
Ġolharmos
Ġjew
Ġswe
Ġconcord
Ġ196
Ġfazerem
Ġarquitet
dr
Ġprogramas
posso
Ġinvestimento
-time
Ġfrancisco
ked
ker
Ġbrown
Ġacas
vision
nem
Ġclín
Ġappear
Ġanatom
pot
Ġconselho
queza
Ġqui
Ġcustom
Ġesforço
Ġfocused
Ġresid
Ġcomplexity
Ġfaith
Ġtecn
worth
Ġdesl
etes
ropri
Ġprazer
Ġespírito
Ġferramenta
Ġstandard
Ġtrib
Ġextreme
Ġquantos
Ġoccur
Ġparticles
Ġtrill
Ġnobel
ding
vement
Ġinteligentes
Ġexército
Ġquin
Ġaprove
Ġenjoy
Ġclaramente
Ġopinião
ceed
Ġburacos
Ġnegros
his
Ġhey
Ġcora
Ġconsiderar
Ġparecia
Ġcompl
Ġdifíceis
eleza
Ġdirectly
Ġmolecular
30
Ġbocado
Ġhusband
Ġmedir
Ġancest
ky
Ġfully
Ġcry
elling
Ġratos
Ġpolitic
Ġwon
Ġtanta
tered
Ġcomet
Ġchim
Ġpuzz
Ġstore
Ġmathematics
ridge
Ġlesson
Ġgut
Ġdecidimos
Ġencontrámos
ningu
ninguém
athy
Ġglob
vous
Ġwaste
rious
Ġdorm
Ġskills
Ġencontra
Ġpeças
Ġom
Ġflorestas
Ġlembro
Ġconver
anh
muitos
Ġinfrastructure
ota
Ġbunch
Ġeasily
Ġdesaparecer
Ġthroughout
Ġbrasil
Ġincome
Ġsmell
Ġestrela
Ġobjeto
Ġblocks
Ġespac
Ġencontram
Ġ$
Ġpassei
ivel
Ġanyway
itação
Ġperfeito
Ġestradas
Ġchrist
Ġpropag
Ġepidemia
Ġrisks
aturas
Ġbeleza
Ġcomunicar
Ġartistas
Ġinclus
Ġnoise
Ġspaces
Ġmachines
Ġwide
Ġtendência
Ġfinanci
inear
Ġembar
Ġentrev
Ġinterview
Ġtree
Ġprem
Ġbroken
bom
Ġriver
Ġvelho
Ġfortes
Ġanálise
eda
Ġdelic
Ġteriam
eses
Ġlaugh
Ġbrincar
Ġprove
Ġauthor
Ġaspecto
ounds
çado
Ġlegs
Ġbirds
Ġknowing
Ġfeels
ote
Ġtratar
Ġcontem
Ġscientist
Ġincríveis
rill
Ġjuntar
Ġcorresp
Ġareia
Ġbarre
Ġpositive
onal
Ġgram
ún
Ġharvard
Ġcreativity
Ġpront
Ġpressão
ange
Ġbrazil
ológicos
Ġabst
Ġnave
agement
Ġmys
Ġmétodo
Ġalien
Ġcientífica
Ġdentes
Ġfaçam
print
Ġprovável
Ġaccom
Ġtestemun
Ġslightly
ínas
Ġminuto
Ġentreprene
Ġwestern
Ġheav
Ġmultiple
Ġespet
cal
Ġswitch
Ġouvido
Ġbeauty
Ġára
Ġárabe
Ġii
Ġtherefore
xico
Ġcareer
ient
Ġquantum
Ġstren
sometimes
Ġsen
Ġeuropean
itária
Ġreais
Ġsorry
Ġparado
Ġheat
éd
Ġcuidado
Ġzo
Ġmicró
começ
Ġenfrentar
Ġdegree
duct
Ġconflict
Ġantiga
fui
Ġaceitar
Ġtrain
ti
Ġtrial
Ġsítios
Ġarmaz
Ġnervous
Ġnamed
Ġdifferently
bram
aram-me
eladas
Ġdot
Ġleon
Ġshot
Ġsignificant
Ġadolescentes
Ġwood
raid
Ġbegins
Ġanalog
Ġfrustr
Ġbrut
Ġbola
Ġpermitem
Ġrequire
Ġjer
hib
Ġrichard
algumas
ecemos
Ġecossistem
Ġhell
Ġholding
Ġimens
Ġkilometers
Ġagricultores
Ġapresentar
rais
Ġencoura
Ġbear
Ġwit
Ġtroux
Ġpúblicos
Ġcapacity
Ġsentimos
ficas
Ġbag
pair
ania
Ġholes
Ġtrein
Ġrápida
Ġordem
Ġaudiência
Ġvolunt
Ġteu
Ġforever
Ġbelieved
Ġtypes
Ġformação
eis
Ġnutri
Ġrequer
Ġobsess
ena
Ġthanks
Ġjustice
Ġquantas
Ġvento
atórios
Ġconvid
cape
Ġexcelente
Ġmeters
Ġpoderemos
Ġdrink
Ġelements
Ġhelping
existe
Ġsupp
Ġnecessary
Ġolhem
Ġslide
Ġcreio
Ġcomuns
Ġcaliforn
Ġsick
Ġcounter
Ġram
Ġindividuais
Ġconsumo
Ġserviço
outra
Ġplane
atia
Ġsentimentos
Ġfeelings
child
Ġbabbage
Ġjames
Ġretir
Ġtrabalhos
Ġlonga
Ġmorr
Ġlav
Ġafraid
Ġsms
anos
Ġacess
ulate
Ġtoi
Ġtoilet
Ġconfront
Ġfotografias
Ġstudies
Ġ35
Ġproteção
uge
Ġsím
Ġdetr
Ġnotícia
Ġescond
Ġbelow
Ġamazon
Ġseconds
Ġredor
Ġuses
Ġtwe
esa
Ġprimeiras
Ġotherwise
Ġterrível
Ġplants
Ġresponsibility
Ġpoupar
Ġpropos
édia
Ġarmy
Ġabri
Ġdirig
Ġwheel
Ġanywhere
iosas
Ġiphone
Ġfug
iger
Ġmás
Ġarri
rá
Ġmarido
Ġcrucial
point
Ġartists
Ġsensor
Ġug
Ġlixo
encont
Ġclaim
Ġbubble
Ġconsist
havia
Ġfenómeno
Ġtécnicas
Ġdispositivo
idden
Ġeleições
oting
Ġbarb
Ġbanco
Ġquân
iling
irei
Ġvaz
Ġescrita
Ġthrow
-st
ami
Ġ36
ns
Ġcardí
bast
Ġcompreensão
Ġfábrica
Ġtarefa
Ġtraduz
Ġpernas
Ġproduc
âng
Ġapanhar
cking
Ġvoar
Ġótimo
Ġupon
Ġimportantly
each
ães
Ġspider
Ġurg
Ġmatar
Ġaffected
Ġpair
Ġbos
Ġmountain
Ġsecure
Ġforth
Ġlanguages
Ġturning
Ġdisponível
Ġinstance
Ġdaí
esh
Ġdots
âns
Ġflutu
Ġagree
Ġreve
Ġalterar
Ġresponsável
Ġdoub
Ġhiv
descobri
uração
Ġpossibly
idental
Ġdesf
Ġconseguirmos
Ġtorna-se
Ġwalked
Ġpreocupar
Ġcontas
Ġevolved
Ġflores
Ġmaravilhoso
Ġconhecem
ína
Ġedge
Ġsummer
Ġtherap
apr
Ġexerc
Ġpartilh
Ġcarreira
Ġdaily
Ġconhecido
Ġconfig
ianos
Ġlados
icans
Ġeleph
Ġiremos
Ġcalifornia
Ġimaginação
Ġdedic
Ġmicrobes
Ġtantos
Ġopposite
Ġsurprise
Ġprecisão
Ġrene
Ġinternacional
Ġirmão
Ġpoderosa
Ġstudied
Ġlevels
Ġeveryday
Ġdispl
enciais
Ġantigo
Ġchuva
Ġplata
lin
Ġbasis
met
Ġaberto
agir
Ġcards
second
Ġcamb
Ġversus
Ġpacientes
Ġversion
tured
Ġcores
connect
Ġvalues
Ġvídeos
Ġcompos
Ġdrogas
Ġfamous
Ġcurrent
Ġelet
Ġrobots
Ġbeet
Ġdado
inson
ecido
Ġwhose
Ġsurpres
Ġhem
Ġelimin
bas
Ġentra
Ġimper
Ġintest
Ġtestar
Ġcompanhia
yes
Ġdaquela
Ġfoundation
Ġe.
Ġrecente
rava
Ġdestroy
Ġescolhas
Ġchoices
Ġengineering
tion
iel
Ġtuber
Ġencora
Ġplantas
Ġgratu
Ġnoção
Ġnation
Ġadequ
ishing
20
Ġfalar-vos
Ġcadeira
zen
Ġletters
icles
Ġmorre
rados
Ġmenor
ancos
ione
Ġtalib
Ġconstruímos
bos
Ġfazendo
amic
Ġdefici
Ġfeitas
Ġvozes
Ġtemperatura
Ġtemperature
Ġconheci
Ġconteúdo
Ġrout
Ġwalls
Ġessential
atives
Ġqueríamos
Ġunidade
agar
Ġgraus
-as
Ġconstruct
Ġhabitu
Ġbritish
Ġmid
Ġvacinas
,5
Ġquente
Ġcombustível
Ġfós
Ġinvented
Ġnorte-american
iving
Ġ10,000
Ġsuficientemente
Ġmicróbios
Ġdry
Ġaccident
Ġprecisar
Ġinfelizmente
Ġcír
Ġbitcoin
Ġcreates
Ġdecisions
Ġdesperd
Ġmoda
Ġcoca-c
Ġcoca-cola
eper
Ġdirecção
Ġcientista
Ġ2012
Ġrobôs
.º
ivemos
Ġleaves
Ġterreno
Ġmeia
Ġkg
Ġcheia
Ġvag
Ġnanopatch
Ġsímbol
Ġdetrás
Ġa.
erei
Ġintelligence
Ġdecor
Ġpleas
Ġnormais
Ġhappiness
tocin
Ġstructures
Ġmarch
Ġchama
Ġorganizações
Ġgras
Ġmanage
cript
Ġalex
Ġsister
Ġprotest
Ġsustentável
ionally
am-me
isms
Ġended
acontece
Ġbrilhante
Ġconsciousness
Ġhearing
Ġcanal
Ġprincipais
Ġrat
atures
Ġdyn
Ġmagia
Ġacreditam
Ġbactérias
-do
Ġchemistry
Ġgard
Ġgh
Ġficaram
Ġessencial
ison
Ġbenefits
Ġdescrever
veja
Ġescrito
Ġengenharia
Ġprevent
own
ídio
ali
Ġchimpan
Ġtrop
Ġthomas
Ġrenov
Ġestú
Ġworst
pto
Ġlição
Ġreconstruir
instead
Ġrato
Ġsoil
Ġshel
Ġpós
Ġataque
Ġprofunda
Ġbright
Ġenormous
Ġmostly
itado
ancy
though
Ġmusical
idimensional
Ġtradicional
Ġtradicionais
Ġescreveu
water
Ġplatform
Ġbarulho
Ġacaso
aster
Ġrei
Ġlimite
Ġtelefone
Ġreduzir
Ġmouth
Ġcertos
Ġidentidade
Ġvidro
Ġalgures
Ġraised
Ġanalisar
Ġsentem
Ġtes
Ġmédica
Ġinterven
Ġcabelo
muitas
Ġdevíamos
Ġgender
Ġsequência
Ġprev
Ġrecompens
yl
Ġnone
Ġés
ginas
Ġterão
Ġfalhar
Ġdezenas
Ġtrâns
Ġessencialmente
opard
cule
Ġcure
Ġprincípios
eps
Ġdepression
Ġconnections
Ġoxito
Ġoxitocina
Ġaware
Ġdesist
Ġdue
Ġorganizations
Ġafirm
Ġbebés
eds
Ġprofound
Ġgall
Ġwindow
Ġocorre
Ġéramos
Ġtelevisão
íram
Ġdiver
Ġcrow
Ġprecisava
Ġtestes
Ġcolon
Ġpodermos
énia
Ġsignal
Ġcaught
Ġleading
Ġjulg
foram
Ġexercis
Ġlondon
ológico
Ġrig
Ġsentence
Ġsaved
Ġharder
Ġconcre
cip
fl
hold
Ġperigo
Ġacompan
órnia
Ġ2.
Ġimagination
Ġforces
plant
Ġreplic
have
Ġcaf
Ġdifferences
Ġpuzzle
Ġheads
Ġdeclar
Ġmart
Ġtrick
Ġcollective
quelas
Ġindo
Ġprova
Ġfacul
Ġreceived
antic
Ġfantastic
Ġwhom
Ġbusca
Ġcommer
Ġdiagnos
Ġsubstituir
Ġemocion
Ġagricultura
Ġpertur
ir-se
Ġ45
Ġtreino
Ġmissão
Ġmission
Ġcamada
Ġmajority
pose
Ġwid
Ġstuck
Ġpolítico
Ġnaturais
Ġdiret
Ġprojetos
iosa
Ġgates
Ġtons
Ġheró
Ġdil
Ġriqueza
Ġsolid
Ġquiet
Ġcabo
Ġdesire
Ġunido
Ġcasamento
Ġteremos
Ġcanção
pas
Ġmessages
Ġ2007
chain
Ġadvant
Ġactive
Ġfé
see
Ġdispositivos
Ġpáginas
Ġdesenhar
Ġmanufact
Ġdefinição
acia
Ġskelet
Ġfell
Ġoxytocin
ividade
Ġpersu
Ġdescribed
-n
ester
Ġerrada
Ġdesesper
Ġagu
ording
ered
Ġwave
Ġindivíduo
Ġvá
Ġouro
Ġrepresenta
Ġpartners
Ġvote
Ġdomestic
Ġunfortunately
han
Ġmostram
Ġavançar
Ġdefender
Ġamostras
urar
itarian
Ġvoices
esia
Ġlondres
inu
Ġcitizen
Ġaltamente
Ġmanaged
izes
actually
Ġgap
Ġcheguei
Ġinspired
issem
Ġuber
inter
Ġlibertar
Ġinvas
Ġharm
Ġbackground
Ġfrases
Ġdescribe
your
Ġblocos
Ġcalifórnia
Ġescolh
Ġfossil
una
Ġapplications
Ġtransm
Ġeconomics
Ġwatched
-based
Ġadopt
Ġbeach
Ġtwice
Ġpassed
Ġvarious
Ġtraum
Ġvermelho
Ġtenhamos
Ġeld
Ġsalas
úl
Ġpáss
Ġpássar
Ġapre
Ġanaly
Ġmotion
endeu
kers
Ġpurpose
Ġras
Ġfrequência
Ġcurious
Ġenvolver
Ġaplicações
Ġgor
Ġclara
Ġfacilmente
Ġargument
Ġclientes
Ġlies
Ġmanhatt
Ġmanhattan
Ġ2050
Ġatual
iles
Ġmc
Ġsequence
Ġfacts
Ġinfraestrut
Ġamericana
Ġerror
aud
isa
Ġhorm
Ġdiscut
Ġimpressão
Ġarranjar
Ġsomente
Ġspending
quant
Ġcorru
Ġcorner
Ġrendimento
Ġblog
yer
Ġreligious
Ġingred
Ġcheaper
Ġeuros
Ġtrânsito
Ġteríamos
Ġeating
Ġcaro
Ġinstituição
Ġmoments
vido
Ġyellow
Ġtrillion
Ġexpansão
olar
Ġnatal
far
Ġattract
Ġentropia
Ġscri
Ġtrag
Ġexperienced
Ġchines
Ġdeixou
Ġretina
Ġrodas
Ġcair
Ġreser
Ġoferecer
Ġchinês
Ġencar
cre
-re
Ġconflitos
rog
Ġexpert
Ġsuit
Ġcama
Ġdisponíveis
Ġplayed
Ġconsequências
Ġcongest
Ġcognitive
Ġpensarem
Ġawes
apenas
Ġlandscape
Ġswim
Ġmaster
Ġfixe
ilha
Ġaberta
rane
Ġlying
isl
Ġhate
anta
Ġconclus
Ġavó
Ġmortes
Ġarma
Ġcatch
Ġost
Ġfrench
Ġfaça
Ġjoin
seis
acos
Ġfascinating
Ġexplore
Ġhypo
Ġponte
Ġvender
am-nos
Ġprest
Ġdetails
Ġdung
segundo
Ġemoções
Ġarquitetura
Ġcorpos
Ġexecut
Ġchef
Ġbits
Ġpensava
Ġmur
Ġbias
Ġmigr
Ġinvisível
Ġdavid
which
however
íb
Ġleonardo
enar
Ġsuffering
Ġeletric
Ġfrio
Ġrádio
fun
very
ables
Ġgostamos
Ġimmigr
Ġgeralmente
off
Ġ2001
Ġtivessem
Ġignorância
Ġignorance
once
icais
Ġoperating
Ġvaluable
Ġcopyright
Ġdecidir
Ġcriminal
Ġatmosfera
Ġe.u
Ġmars
Ġtécnica
Ġcapita
Ġfailed
alous
Ġchur
Ġdiga
Ġchic
Ġbaseado
Ġfairly
Ġaging
Ġlimites
uit
Ġrecor
énis
ontes
Ġweather
Ġcomportamentos
Ġolhamos
Ġdemais
Ġconstantemente
Ġobtemos
ulta
Ġcircum
Ġprofundo
Ġprémio
Ġprize
Ġbabies
Ġeffectively
Ġcriámos
Ġtendo
Ġluc
Ġveget
Ġescal
Ġvehicle
load
ament
Ġincap
Ġaustr
Ġprivacy
Ġdamage
ka
Ġdomést
Ġinterface
Ġdinâm
Ġdespite
Ġestejam
Ġfaces
Ġpossibilidades
Ġawesome
Ġpronto
Ġrelativamente
ólogos
Ġco2
Ġmicha
Ġsides
Ġinfluence
Ġaperceb
Ġiraq
Ġrelease
Ġslowly
Ġprofundamente
Ġsafety
cale
Ġfilmes
Ġconfor
Ġvict
Ġinteressa
Ġdamos
ties
pm
Ġhypoth
other
Ġtelemóveis
ception
Ġaccur
Ġestilo
Ġacrescent
Ġseriam
Ġassign
Ġparad
Ġdevo
Ġdetet
Ġamericano
Ġalthough
while
neath
ulação
Ġcambridge
Ġbairro
eo
mother
Ġespect
Ġinvestir
-off
Ġobra
Ġdistance
Ġfle
Ġ26
Ġalma
Ġidentity
Ġreputação
entamente
ótica
Ġmold
Ġaranha
Ġeffort
Ġpassam
Ġclip
Ġenfer
Ġcartas
Ġpaul
Ġdarwin
iber
Ġunif
Ġvert
ecia
Ġrosto
Ġatingir
Ġiron
ysis
Ġlights
dios
Ġenvironmental
Ġnações
Ġmicrof
Ġefficient
empt
oust
Ġopções
Ġsavings
Ġvale
Ġterrorismo
iring
opardy
Ġdesconhec
Ġchicago
imed
Ġligações
rol
father
Ġinstitution
vidas
Ġfactors
Ġwitness
Ġroads
Ġhomes
Ġforeign
Ġentropy
Ġtexto
Ġvisitar
Ġ20th
fit
Ġsentia
Ġgol
Ġbrill
unte
Ġexistir
Ġloud
Ġgotten
Ġseat
Ġprivacidade
Ġinterpret
Ġdens
Ġkenya
Ġmeat
Ġfase
ays
Ġextraordinário
Ġdúvida
Ġtoca
Ġfrance
aprend
Ġfantástica
ute
ancing
Ġautocar
Ġcarefully
Ġstrength
eca
Ġplanetas
Ġgarden
Ġring
Ġsn
ânia
Ġgestão
-bre
Ġminor
ales
ênt
Ġphenomenon
Ġbenefícios
Ġhack
Ġviajar
Ġdrag
Ġvaccines
rigo
Ġweak
Ġhang
arem-se
Ġater
Ġgent
ctional
anhas
Ġproduced
Ġpossu
yeah
Ġlong-term
Ġapareceu
Ġdum
Ġcauses
Ġvoltei
Ġmoves
Ġação
Ġaumenta
bled
Ġphilosoph
Ġdocuments
Ġcharge
Ġnão-
Ġnon-
Ġpudessem
Ġopportunities
Ġpatent
Ġgrade
Ġaid
Ġresili
Ġextens
amp
Ġsoul
Ġparce
Ġóbvio
Ġmetal
Ġelemento
Ġrow
Ġalimentos
Ġmonte
Ġeletricidade
Ġregisto
airs
Ġtoler
Ġconflito
ulation
Ġmiúdo
Ġfake
Ġphones
Ġnecessidades
Ġfragment
Ġesquerdo
Ġemocional
Ġbehaviors
Ġfome
ág
Ġbatalha
Ġdepende
Ġgel
ámo-nos
Ġatmosphere
Ġluzes
Ġespacial
Ġmolecule
Ġprinciples
ari
Ġastron
Ġteeth
Ġcientífico
Ġtecidos
Ġvelhos
Ġavô
Ġrough
Ġproteínas
Ġcanada
Ġbomba
Ġempreended
Ġocidental
Ġobjecto
Ġequipamento
Ġactivity
Ġcegos
Ġvolunte
Ġintim
ariamente
Ġdiagnóst
Ġlaunched
Ġaer
Ġdizemos
Ġchegámos
Ġpersegu
Ġcomplexos
ime
Ġcalling
Ġsobretudo
apia
Ġstruggle
Ġimmune
Ġconsult
ítulo
Ġparticipar
Ġeventualmente
Ġlucky
-nas
Ġrace
phones
Ġouvimos
